{
  "version": "1.0",
  "truncation": null,
  "padding": null,
  "added_tokens": [
    {
      "id": 0,
      "content": "<|bos|>",
      "single_word": false,
      "lstrip": false,
      "rstrip": false,
      "normalized": false,
      "special": true
    },
    {
      "id": 1,
      "content": "<|eos|>",
      "single_word": false,
      "lstrip": false,
      "rstrip": false,
      "normalized": false,
      "special": true
    },
    {
      "id": 2,
      "content": "<|unk|>",
      "single_word": false,
      "lstrip": false,
      "rstrip": false,
      "normalized": false,
      "special": true
    },
    {
      "id": 3,
      "content": "<|pad|>",
      "single_word": false,
      "lstrip": false,
      "rstrip": false,
      "normalized": false,
      "special": true
    },
    {
      "id": 4,
      "content": "<|im_start|>",
      "single_word": false,
      "lstrip": false,
      "rstrip": false,
      "normalized": false,
      "special": true
    },
    {
      "id": 5,
      "content": "<|im_end|>",
      "single_word": false,
      "lstrip": false,
      "rstrip": false,
      "normalized": false,
      "special": true
    }
  ],
  "normalizer": null,
  "pre_tokenizer": {
    "type": "ByteLevel",
    "add_prefix_space": false,
    "trim_offsets": true,
    "use_regex": true
  },
  "post_processor": {
    "type": "TemplateProcessing",
    "single": [
      {
        "Sequence": {
          "id": "A",
          "type_id": 0
        }
      }
    ],
    "pair": [
      {
        "Sequence": {
          "id": "A",
          "type_id": 0
        }
      },
      {
        "Sequence": {
          "id": "B",
          "type_id": 1
        }
      }
    ],
    "special_tokens": {}
  },
  "decoder": {
    "type": "ByteLevel",
    "add_prefix_space": true,
    "trim_offsets": true,
    "use_regex": true
  },
  "model": {
    "type": "BPE",
    "dropout": null,
    "unk_token": "<|unk|>",
    "continuing_subword_prefix": null,
    "end_of_word_suffix": null,
    "fuse_unk": false,
    "byte_fallback": false,
    "ignore_merges": false,
    "vocab": {
      "<|bos|>": 0,
      "<|eos|>": 1,
      "<|unk|>": 2,
      "<|pad|>": 3,
      "<|im_start|>": 4,
      "<|im_end|>": 5,
      "!": 6,
      "\"": 7,
      "#": 8,
      "$": 9,
      "%": 10,
      "&": 11,
      "'": 12,
      "(": 13,
      ")": 14,
      "*": 15,
      "+": 16,
      ",": 17,
      "-": 18,
      ".": 19,
      "/": 20,
      "0": 21,
      "1": 22,
      "2": 23,
      "3": 24,
      "4": 25,
      "5": 26,
      "6": 27,
      "7": 28,
      "8": 29,
      "9": 30,
      ":": 31,
      ";": 32,
      "<": 33,
      "=": 34,
      ">": 35,
      "?": 36,
      "@": 37,
      "A": 38,
      "B": 39,
      "C": 40,
      "D": 41,
      "E": 42,
      "F": 43,
      "G": 44,
      "H": 45,
      "I": 46,
      "J": 47,
      "K": 48,
      "L": 49,
      "M": 50,
      "N": 51,
      "O": 52,
      "P": 53,
      "Q": 54,
      "R": 55,
      "S": 56,
      "T": 57,
      "U": 58,
      "V": 59,
      "W": 60,
      "X": 61,
      "Y": 62,
      "Z": 63,
      "[": 64,
      "\\": 65,
      "]": 66,
      "^": 67,
      "_": 68,
      "`": 69,
      "a": 70,
      "b": 71,
      "c": 72,
      "d": 73,
      "e": 74,
      "f": 75,
      "g": 76,
      "h": 77,
      "i": 78,
      "j": 79,
      "k": 80,
      "l": 81,
      "m": 82,
      "n": 83,
      "o": 84,
      "p": 85,
      "q": 86,
      "r": 87,
      "s": 88,
      "t": 89,
      "u": 90,
      "v": 91,
      "w": 92,
      "x": 93,
      "y": 94,
      "z": 95,
      "{": 96,
      "|": 97,
      "}": 98,
      "~": 99,
      "¡": 100,
      "¢": 101,
      "£": 102,
      "¤": 103,
      "¥": 104,
      "¦": 105,
      "§": 106,
      "¨": 107,
      "©": 108,
      "ª": 109,
      "«": 110,
      "¬": 111,
      "®": 112,
      "¯": 113,
      "°": 114,
      "±": 115,
      "²": 116,
      "³": 117,
      "´": 118,
      "µ": 119,
      "¶": 120,
      "·": 121,
      "¸": 122,
      "¹": 123,
      "º": 124,
      "»": 125,
      "¼": 126,
      "½": 127,
      "¾": 128,
      "¿": 129,
      "À": 130,
      "Á": 131,
      "Â": 132,
      "Ã": 133,
      "Ä": 134,
      "Å": 135,
      "Æ": 136,
      "Ç": 137,
      "È": 138,
      "É": 139,
      "Ê": 140,
      "Ë": 141,
      "Ì": 142,
      "Í": 143,
      "Î": 144,
      "Ï": 145,
      "Ð": 146,
      "Ñ": 147,
      "Ò": 148,
      "Ó": 149,
      "Ô": 150,
      "Õ": 151,
      "Ö": 152,
      "×": 153,
      "Ø": 154,
      "Ù": 155,
      "Ú": 156,
      "Û": 157,
      "Ü": 158,
      "Ý": 159,
      "Þ": 160,
      "ß": 161,
      "à": 162,
      "á": 163,
      "â": 164,
      "ã": 165,
      "ä": 166,
      "å": 167,
      "æ": 168,
      "ç": 169,
      "è": 170,
      "é": 171,
      "ê": 172,
      "ë": 173,
      "ì": 174,
      "í": 175,
      "î": 176,
      "ï": 177,
      "ð": 178,
      "ñ": 179,
      "ò": 180,
      "ó": 181,
      "ô": 182,
      "õ": 183,
      "ö": 184,
      "÷": 185,
      "ø": 186,
      "ù": 187,
      "ú": 188,
      "û": 189,
      "ü": 190,
      "ý": 191,
      "þ": 192,
      "ÿ": 193,
      "Ā": 194,
      "ā": 195,
      "Ă": 196,
      "ă": 197,
      "Ą": 198,
      "ą": 199,
      "Ć": 200,
      "ć": 201,
      "Ĉ": 202,
      "ĉ": 203,
      "Ċ": 204,
      "ċ": 205,
      "Č": 206,
      "č": 207,
      "Ď": 208,
      "ď": 209,
      "Đ": 210,
      "đ": 211,
      "Ē": 212,
      "ē": 213,
      "Ĕ": 214,
      "ĕ": 215,
      "Ė": 216,
      "ė": 217,
      "Ę": 218,
      "ę": 219,
      "Ě": 220,
      "ě": 221,
      "Ĝ": 222,
      "ĝ": 223,
      "Ğ": 224,
      "ğ": 225,
      "Ġ": 226,
      "ġ": 227,
      "Ģ": 228,
      "ģ": 229,
      "Ĥ": 230,
      "ĥ": 231,
      "Ħ": 232,
      "ħ": 233,
      "Ĩ": 234,
      "ĩ": 235,
      "Ī": 236,
      "ī": 237,
      "Ĭ": 238,
      "ĭ": 239,
      "Į": 240,
      "į": 241,
      "İ": 242,
      "ı": 243,
      "Ĳ": 244,
      "ĳ": 245,
      "Ĵ": 246,
      "ĵ": 247,
      "Ķ": 248,
      "ķ": 249,
      "ĸ": 250,
      "Ĺ": 251,
      "ĺ": 252,
      "Ļ": 253,
      "ļ": 254,
      "Ľ": 255,
      "ľ": 256,
      "Ŀ": 257,
      "ŀ": 258,
      "Ł": 259,
      "ł": 260,
      "Ń": 261,
      "Ġt": 262,
      "Ġa": 263,
      "he": 264,
      "in": 265,
      "re": 266,
      "on": 267,
      "Ġthe": 268,
      "er": 269,
      "at": 270,
      "Ġs": 271,
      "Ġo": 272,
      "en": 273,
      "Ġc": 274,
      "is": 275,
      "es": 276,
      "Ġw": 277,
      "or": 278,
      "it": 279,
      "an": 280,
      "al": 281,
      "Ġp": 282,
      "Ġf": 283,
      "Ġof": 284,
      "ed": 285,
      "Ġan": 286,
      "Ġb": 287,
      "ar": 288,
      "Ġin": 289,
      "ion": 290,
      "ing": 291,
      "Ġm": 292,
      "ic": 293,
      "ou": 294,
      "Ġd": 295,
      "Ġto": 296,
      "Ġand": 297,
      "le": 298,
      "ro": 299,
      "as": 300,
      "Ġth": 301,
      "ct": 302,
      "ent": 303,
      "Ġh": 304,
      "Ġe": 305,
      "Ġn": 306,
      "om": 307,
      "Ġre": 308,
      "st": 309,
      "ve": 310,
      "il": 311,
      "Ġl": 312,
      "Ġis": 313,
      "et": 314,
      "ly": 315,
      "ation": 316,
      "ĠT": 317,
      "im": 318,
      "ol": 319,
      "ut": 320,
      "Ġg": 321,
      "ot": 322,
      "se": 323,
      "ra": 324,
      "Ġbe": 325,
      "ce": 326,
      "id": 327,
      "ig": 328,
      "Ġfor": 329,
      "ĠA": 330,
      "ow": 331,
      "âĢ": 332,
      "ĠS": 333,
      "ĠI": 334,
      "Ġu": 335,
      "ch": 336,
      "Ġthat": 337,
      "Ġon": 338,
      "Ġ(": 339,
      "ur": 340,
      "ĠC": 341,
      "ver": 342,
      "ul": 343,
      "Ġ1": 344,
      "am": 345,
      "Ġst": 346,
      "el": 347,
      "ith": 348,
      "Ġy": 349,
      "ay": 350,
      "ir": 351,
      "Ġpro": 352,
      "Ġcon": 353,
      "Ġas": 354,
      "if": 355,
      "Ġ2": 356,
      "ĠM": 357,
      "um": 358,
      "od": 359,
      "Ġwith": 360,
      "ad": 361,
      "Ġare": 362,
      "Ġit": 363,
      "her": 364,
      "ĠP": 365,
      "Ġal": 366,
      "ter": 367,
      "ge": 368,
      "Ġwh": 369,
      "ĠThe": 370,
      "Ġor": 371,
      "qu": 372,
      "ate": 373,
      "nd": 374,
      "ist": 375,
      "ab": 376,
      "Ġex": 377,
      "Ġyou": 378,
      "ri": 379,
      "Ġde": 380,
      "th": 381,
      "ĠB": 382,
      "Ġwe": 383,
      "Ġv": 384,
      "ect": 385,
      "res": 386,
      "ment": 387,
      "op": 388,
      "est": 389,
      "ers": 390,
      "os": 391,
      "Ġcom": 392,
      "Ġby": 393,
      "ity": 394,
      "and": 395,
      "ill": 396,
      "Ġat": 397,
      "us": 398,
      "ore": 399,
      "ĠH": 400,
      "em": 401,
      "Ġsu": 402,
      "ac": 403,
      "igh": 404,
      "ĠD": 405,
      "rom": 406,
      "ĠW": 407,
      "ĠF": 408,
      "pp": 409,
      "ess": 410,
      "00": 411,
      "ĠR": 412,
      "ive": 413,
      "ld": 414,
      "nt": 415,
      "Ġhe": 416,
      "ies": 417,
      "ĠE": 418,
      "ant": 419,
      "Ġr": 420,
      "ain": 421,
      "ke": 422,
      "iv": 423,
      "ave": 424,
      "ĠN": 425,
      "un": 426,
      "Ġse": 427,
      "Ġfrom": 428,
      "Ġcan": 429,
      "Ġ$": 430,
      "oc": 431,
      "Ġnot": 432,
      "Ġne": 433,
      "ĠL": 434,
      "ical": 435,
      "ure": 436,
      "Ġch": 437,
      "art": 438,
      "ud": 439,
      "Ġthis": 440,
      "ĠG": 441,
      "ial": 442,
      "ort": 443,
      "ight": 444,
      "Ġwas": 445,
      "pl": 446,
      "ction": 447,
      "Ġhave": 448,
      "pt": 449,
      "ine": 450,
      "pe": 451,
      "Ġ\\": 452,
      "Ġsh": 453,
      "og": 454,
      "ĠĠ": 455,
      "ere": 456,
      "ich": 457,
      "all": 458,
      "Ġle": 459,
      "per": 460,
      "end": 461,
      "ould": 462,
      "Ġus": 463,
      "ag": 464,
      "ĠO": 465,
      "Âł": 466,
      "Ġab": 467,
      "ated": 468,
      "âĢĻ": 469,
      "ther": 470,
      "ost": 471,
      "rou": 472,
      "The": 473,
      "ome": 474,
      "ĠJ": 475,
      "ust": 476,
      "our": 477,
      "ĠâĢ": 478,
      "Ġint": 479,
      "'s": 480,
      "iz": 481,
      "age": 482,
      "ple": 483,
      "ff": 484,
      "ions": 485,
      "ard": 486,
      "ult": 487,
      "Ġwor": 488,
      "Ġwhich": 489,
      "..": 490,
      "out": 491,
      "ations": 492,
      "Ġwhe": 493,
      "Ġim": 494,
      "gh": 495,
      "du": 496,
      "ans": 497,
      "ell": 498,
      "orm": 499,
      "##": 500,
      "ĠIn": 501,
      "ĠU": 502,
      "Ġ\"": 503,
      "Ġ=": 504,
      "ib": 505,
      "Ġk": 506,
      "Ġ20": 507,
      "act": 508,
      "ast": 509,
      "Ġpl": 510,
      "Ġall": 511,
      "ide": 512,
      "Ġen": 513,
      "Ġdo": 514,
      "are": 515,
      "Ġres": 516,
      "ear": 517,
      "Ġcont": 518,
      "Ġ-": 519,
      "ew": 520,
      "ous": 521,
      "ak": 522,
      "able": 523,
      "Ġwill": 524,
      "ary": 525,
      "Ġad": 526,
      "cl": 527,
      "Ġ3": 528,
      "ru": 529,
      "ber": 530,
      "ap": 531,
      "Ġme": 532,
      ").": 533,
      "ong": 534,
      "cc": 535,
      "ath": 536,
      "ind": 537,
      "ĠTh": 538,
      "Ġhas": 539,
      "Ġdis": 540,
      "ass": 541,
      "Ġbut": 542,
      "Ġcl": 543,
      "Ġone": 544,
      "ire": 545,
      "ence": 546,
      "Ġmore": 547,
      "ks": 548,
      "ach": 549,
      "vel": 550,
      "ase": 551,
      "int": 552,
      "ally": 553,
      "Ġper": 554,
      "Ġtheir": 555,
      "ep": 556,
      "so": 557,
      "ry": 558,
      "ia": 559,
      "Ġthey": 560,
      "ood": 561,
      "Ġcomp": 562,
      "Ġother": 563,
      "ame": 564,
      "ph": 565,
      "av": 566,
      "Ġsp": 567,
      "ign": 568,
      "ex": 569,
      "ance": 570,
      "ition": 571,
      "Ġapp": 572,
      "ime": 573,
      "ang": 574,
      "ens": 575,
      "ip": 576,
      "ace": 577,
      "ents": 578,
      "Ġun": 579,
      "ater": 580,
      "Ġ19": 581,
      "Ġqu": 582,
      "ue": 583,
      "ose": 584,
      "ress": 585,
      "low": 586,
      "ite": 587,
      "Ġ0": 588,
      "Ġso": 589,
      "Ġyour": 590,
      "Ġar": 591,
      "Ġj": 592,
      "Ġpre": 593,
      "ric": 594,
      "Ġ6": 595,
      "Ġman": 596,
      "au": 597,
      "fere": 598,
      "Ġout": 599,
      "ory": 600,
      "Ġwere": 601,
      "ack": 602,
      "Ġpart": 603,
      "ĠSt": 604,
      "Ġsy": 605,
      "ub": 606,
      "form": 607,
      "Ġsc": 608,
      "ord": 609,
      "ors": 610,
      "Ġalso": 611,
      "),": 612,
      "ake": 613,
      "ĠK": 614,
      "ree": 615,
      "oo": 616,
      "ound": 617,
      "Ġev": 618,
      "ild": 619,
      "con": 620,
      "very": 621,
      "one": 622,
      "ces": 623,
      "ile": 624,
      "Ġ4": 625,
      "Ġif": 626,
      "ice": 627,
      "ates": 628,
      "Ġabout": 629,
      "Ġthan": 630,
      "ĠV": 631,
      "Ġsome": 632,
      "ount": 633,
      "Ġthere": 634,
      "{\\": 635,
      "ike": 636,
      "now": 637,
      "port": 638,
      "ft": 639,
      "Ġtw": 640,
      "pec": 641,
      "ys": 642,
      "âĢĿ": 643,
      "Ġdif": 644,
      "ms": 645,
      "Ġmay": 646,
      "$$": 647,
      "Ġpo": 648,
      "Ġup": 649,
      "ie": 650,
      "ail": 651,
      "Ġnum": 652,
      "Ġuse": 653,
      "ari": 654,
      "Ġ5": 655,
      "vers": 656,
      "Ġcomm": 657,
      "ject": 658,
      "rac": 659,
      "Ġstud": 660,
      "ll": 661,
      "Ġtime": 662,
      "ish": 663,
      "ics": 664,
      "ble": 665,
      "reat": 666,
      "olog": 667,
      "Ġwhen": 668,
      "ays": 669,
      "Ġwho": 670,
      "Ġhis": 671,
      "irst": 672,
      "ĠIt": 673,
      "Ġbec": 674,
      "erv": 675,
      "Ġits": 676,
      "Ġbet": 677,
      "nder": 678,
      "Ġwould": 679,
      "Ġmod": 680,
      "ĠCh": 681,
      "ĠThis": 682,
      "Ġgen": 683,
      "stem": 684,
      "we": 685,
      "Ġind": 686,
      "ĠY": 687,
      "Ġag": 688,
      "ian": 689,
      "10": 690,
      "lect": 691,
      "ĠĠĠĠ": 692,
      "Ġany": 693,
      "Ġbeen": 694,
      "Ġro": 695,
      "Ġtwo": 696,
      "Ġob": 697,
      "cre": 698,
      "âĢ¢": 699,
      "rib": 700,
      "ove": 701,
      "Ġpe": 702,
      "Ġinto": 703,
      "ution": 704,
      "ough": 705,
      "Ġover": 706,
      "ings": 707,
      "Ġyear": 708,
      "Ġthem": 709,
      "eg": 710,
      "Ġthese": 711,
      "Ġhow": 712,
      "ual": 713,
      "tern": 714,
      "te": 715,
      "ĠâĢľ": 716,
      "ative": 717,
      "Ġ7": 718,
      "ific": 719,
      "Ġcons": 720,
      "Ġwork": 721,
      "Ġcol": 722,
      "mer": 723,
      "Ġtr": 724,
      "Ġte": 725,
      "Ġno": 726,
      "Ġrec": 727,
      "Ġgo": 728,
      "Ġrel": 729,
      "Ġonly": 730,
      "clud": 731,
      "ause": 732,
      "unction": 733,
      "Ġdes": 734,
      "lic": 735,
      "20": 736,
      "ook": 737,
      "Ġknow": 738,
      "ons": 739,
      "ular": 740,
      "Ġsuch": 741,
      "ient": 742,
      "Ġ200": 743,
      "Ġco": 744,
      "les": 745,
      "Ġlike": 746,
      "row": 747,
      "rad": 748,
      "eth": 749,
      "ational": 750,
      "Ġunder": 751,
      "Ġnew": 752,
      "erm": 753,
      "Ġused": 754,
      "Ġexp": 755,
      "Ġfirst": 756,
      "Ġdiffere": 757,
      "ds": 758,
      "rit": 759,
      "Ġequ": 760,
      "Ġhad": 761,
      "Ġ+": 762,
      "Ġbl": 763,
      "ata": 764,
      "rough": 765,
      "ov": 766,
      "ram": 767,
      "cess": 768,
      "Ġform": 769,
      "ople": 770,
      "Ġsub": 771,
      "Ġam": 772,
      "Ġneed": 773,
      "ments": 774,
      "--": 775,
      "Ġwhat": 776,
      "Ġacc": 777,
      "Ġpos": 778,
      "Ġph": 779,
      "}}": 780,
      "Ġspec": 781,
      "Ġval": 782,
      "Ġsystem": 783,
      "Ġmost": 784,
      "Ġeff": 785,
      "ĠUn": 786,
      "ating": 787,
      "ob": 788,
      "ren": 789,
      "Ġass": 790,
      "ility": 791,
      "ied": 792,
      "ise": 793,
      "ext": 794,
      "Ġthen": 795,
      "ink": 796,
      "ange": 797,
      "hed": 798,
      "ced": 799,
      "red": 800,
      "_{": 801,
      "ities": 802,
      "ning": 803,
      "Ġsim": 804,
      "Ġ[": 805,
      "Ġreg": 806,
      "Ġsol": 807,
      "Ġact": 808,
      "Ġset": 809,
      "Ġfunction": 810,
      "ween": 811,
      "Ġprodu": 812,
      "Ġx": 813,
      "ible": 814,
      "Ġinclud": 815,
      "Ġprov": 816,
      "als": 817,
      "Ġour": 818,
      "Ġ.": 819,
      "Ġpeople": 820,
      "ample": 821,
      "19": 822,
      "velop": 823,
      "Ġsa": 824,
      "oth": 825,
      "math": 826,
      "ps": 827,
      "Ġ$$": 828,
      "In": 829,
      "Ġwhere": 830,
      "Ġbetween": 831,
      "Ġfol": 832,
      "ark": 833,
      "iss": 834,
      "ert": 835,
      "Ġadd": 836,
      "hen": 837,
      "...": 838,
      "Ġinter": 839,
      "12": 840,
      "ased": 841,
      "Ġdef": 842,
      "Ġgener": 843,
      "Ġnumber": 844,
      "fter": 845,
      "vi": 846,
      "own": 847,
      "Ġac": 848,
      "Ġdist": 849,
      "Ġmany": 850,
      "Ġtrans": 851,
      "Ġsur": 852,
      "Ġshould": 853,
      "Ġvari": 854,
      "hem": 855,
      "Ġget": 856,
      "ures": 857,
      "Ġ&": 858,
      "ne": 859,
      "ract": 860,
      "Ġeach": 861,
      "Ġmat": 862,
      "ower": 863,
      "its": 864,
      "Ġthrough": 865,
      "frac": 866,
      "rain": 867,
      "round": 868,
      "Ġfl": 869,
      "'t": 870,
      "ef": 871,
      "Ġfe": 872,
      "Ġ10": 873,
      ".,": 874,
      "ax": 875,
      "Ġpoint": 876,
      "alth": 877,
      "Ġproble": 878,
      "ĠâĢĵ": 879,
      "Ġfollow": 880,
      "11": 881,
      "ec": 882,
      "Ġdifferent": 883,
      "Ġresult": 884,
      "arch": 885,
      "Ġdet": 886,
      "Ġinst": 887,
      "Ġdevelop": 888,
      "Ġinf": 889,
      "Ġem": 890,
      "uring": 891,
      "ss": 892,
      "Ġoff": 893,
      "ĠWe": 894,
      "resent": 895,
      "Ġ'": 896,
      "Ġdi": 897,
      "the": 898,
      "Ġusing": 899,
      "uc": 900,
      "urn": 901,
      "Ġdata": 902,
      "ues": 903,
      "Ġsm": 904,
      "Ġsupp": 905,
      "Ġatt": 906,
      "Ġrem": 907,
      "Ġcould": 908,
      "erg": 909,
      "Ġty": 910,
      "Ġimp": 911,
      "hat": 912,
      "}{": 913,
      "ict": 914,
      "ond": 915,
      "Ġhel": 916,
      "hes": 917,
      "Ġpr": 918,
      "ont": 919,
      "ĠPro": 920,
      "formation": 921,
      "cy": 922,
      "Ġinv": 923,
      "ci": 924,
      "fore": 925,
      "imes": 926,
      "uch": 927,
      "Ġjust": 928,
      "ful": 929,
      "Ġcor": 930,
      "Ġsame": 931,
      "ix": 932,
      "ick": 933,
      "ten": 934,
      "ĠHe": 935,
      "ĠAn": 936,
      "right": 937,
      "aw": 938,
      "Ġcall": 939,
      "ever": 940,
      "Ġwell": 941,
      "Ġchild": 942,
      "cept": 943,
      "iel": 944,
      "Ġhigh": 945,
      "ines": 946,
      "sel": 947,
      "put": 948,
      "}$": 949,
      "ĠIf": 950,
      "ited": 951,
      "ize": 952,
      "Ġlar": 953,
      "Ġyears": 954,
      "ists": 955,
      "ically": 956,
      "Ġgiv": 957,
      "Ġ8": 958,
      "ident": 959,
      "^{": 960,
      "Ġsee": 961,
      "Ġmy": 962,
      "Ġed": 963,
      "ature": 964,
      "ually": 965,
      "Th": 966,
      "ool": 967,
      "ting": 968,
      "com": 969,
      "Ġbecause": 970,
      "Ġfind": 971,
      "Ġ18": 972,
      "Ġmake": 973,
      "ĠFor": 974,
      "ily": 975,
      "ural": 976,
      "Ġcur": 977,
      "ruct": 978,
      "raph": 979,
      "Ġ$\\": 980,
      "Ġdoes": 981,
      "ade": 982,
      "cent": 983,
      "Ġext": 984,
      "Ġbu": 985,
      "nce": 986,
      "ology": 987,
      "Ġfact": 988,
      "Ġvery": 989,
      "Ġsign": 990,
      "ered": 991,
      "Ġpartic": 992,
      "ĠCom": 993,
      "Ġwater": 994,
      "Ġway": 995,
      "ĠAl": 996,
      "Ġresp": 997,
      "000": 998,
      "oci": 999,
      "ng": 1000,
      "Ġ9": 1001,
      "Ġincre": 1002,
      "__": 1003,
      "Ġfound": 1004,
      "Ġmodel": 1005,
      "Ġprog": 1006,
      "other": 1007,
      "Ġeffect": 1008,
      "Ġhelp": 1009,
      "ork": 1010,
      "Ġrep": 1011,
      "Ġshow": 1012,
      "Ġlong": 1013,
      "Ġafter": 1014,
      "meric": 1015,
      "ty": 1016,
      "Ġear": 1017,
      "old": 1018,
      "ivers": 1019,
      "13": 1020,
      "Ġcomple": 1021,
      "Ġcent": 1022,
      "ism": 1023,
      "ts": 1024,
      "Ġconst": 1025,
      "get": 1026,
      "ases": 1027,
      "chn": 1028,
      "Ġappro": 1029,
      "Ġeven": 1030,
      "ants": 1031,
      "Ġloc": 1032,
      "gan": 1033,
      "Ġpol": 1034,
      "Ġstr": 1035,
      "ages": 1036,
      "ĠRe": 1037,
      "ized": 1038,
      "ince": 1039,
      "Ġ{": 1040,
      "ife": 1041,
      "cul": 1042,
      "Ġtest": 1043,
      "wn": 1044,
      "Ġent": 1045,
      "ator": 1046,
      "ined": 1047,
      "Ġrese": 1048,
      "ved": 1049,
      "der": 1050,
      "Ġimport": 1051,
      "Ġinformation": 1052,
      "Ġstate": 1053,
      "Ġexample": 1054,
      "app": 1055,
      "Ġsaid": 1056,
      "Ġprocess": 1057,
      "ergy": 1058,
      "Ġra": 1059,
      "Ġevery": 1060,
      "Ġgrou": 1061,
      "Ġrequ": 1062,
      "land": 1063,
      "Ġthose": 1064,
      "Ġcar": 1065,
      "Ġpar": 1066,
      "inal": 1067,
      "Ġboth": 1068,
      "ute": 1069,
      "Ġright": 1070,
      "Ġke": 1071,
      "Ġpers": 1072,
      "ĠAmeric": 1073,
      "Ġexper": 1074,
      "Ġmin": 1075,
      "ode": 1076,
      "Â·": 1077,
      "Ġcount": 1078,
      "ethod": 1079,
      "Ġclass": 1080,
      "Ġdep": 1081,
      "Ġdire": 1082,
      "Ġmuch": 1083,
      "vent": 1084,
      "Ġchar": 1085,
      "Ġend": 1086,
      "ection": 1087,
      "cer": 1088,
      "Ġpub": 1089,
      "}\\": 1090,
      "ted": 1091,
      "oy": 1092,
      "Ġmon": 1093,
      "ness": 1094,
      "pr": 1095,
      "ock": 1096,
      "Ġquest": 1097,
      "tic": 1098,
      "Ġdec": 1099,
      "ward": 1100,
      "###": 1101,
      "Ġexpl": 1102,
      "Ġdisc": 1103,
      "Ġposs": 1104,
      "Ġline": 1105,
      "Ġbeing": 1106,
      "15": 1107,
      "aking": 1108,
      "io": 1109,
      "air": 1110,
      "âĪ": 1111,
      "Ġaut": 1112,
      "Ġmed": 1113,
      "Ġsmall": 1114,
      "eng": 1115,
      "rent": 1116,
      "ins": 1117,
      "ron": 1118,
      "ral": 1119,
      "18": 1120,
      "Ġest": 1121,
      "chool": 1122,
      "Ġcre": 1123,
      "read": 1124,
      "ĠHow": 1125,
      "Ġpat": 1126,
      "ale": 1127,
      "ck": 1128,
      "ĠAs": 1129,
      "14": 1130,
      "bers": 1131,
      "Ġread": 1132,
      "16": 1133,
      "Ġcal": 1134,
      "Ġnow": 1135,
      "Ġlevel": 1136,
      "led": 1137,
      "Ġelect": 1138,
      ".\"": 1139,
      "ier": 1140,
      "ather": 1141,
      "Ġ|": 1142,
      "gg": 1143,
      "Ġ:": 1144,
      "Ġstudy": 1145,
      "ĠQ": 1146,
      "tle": 1147,
      "und": 1148,
      "up": 1149,
      "âĢĵ": 1150,
      "ability": 1151,
      "ential": 1152,
      "Ġav": 1153,
      "Ġworld": 1154,
      "cond": 1155,
      "Ġher": 1156,
      "ization": 1157,
      "ĠAr": 1158,
      "Ġmust": 1159,
      "to": 1160,
      "ption": 1161,
      "left": 1162,
      "iron": 1163,
      "Ġhum": 1164,
      "ctor": 1165,
      "rol": 1166,
      "Ġback": 1167,
      "Ġhealth": 1168,
      "ield": 1169,
      "uss": 1170,
      "Ġmeas": 1171,
      "arm": 1172,
      "imate": 1173,
      "ĠSe": 1174,
      "Ġref": 1175,
      "omet": 1176,
      "ides": 1177,
      "Ġgiven": 1178,
      "ĠNew": 1179,
      "Ġca": 1180,
      "ĠEx": 1181,
      "Ġser": 1182,
      "ected": 1183,
      "17": 1184,
      "Ġlear": 1185,
      "Ġthree": 1186,
      "ency": 1187,
      "Ġcond": 1188,
      "Ġduring": 1189,
      "ody": 1190,
      "Ġshe": 1191,
      "itions": 1192,
      "ull": 1193,
      "Ġins": 1194,
      "Ġmethod": 1195,
      "Ġbefore": 1196,
      "This": 1197,
      "Ġgood": 1198,
      "line": 1199,
      "tt": 1200,
      "sw": 1201,
      "Ġmade": 1202,
      "Ġproblem": 1203,
      "ars": 1204,
      "Ġret": 1205,
      "Ġele": 1206,
      "ox": 1207,
      "ices": 1208,
      "Ġve": 1209,
      "iversity": 1210,
      "vern": 1211,
      "Ġfam": 1212,
      "ma": 1213,
      "ran": 1214,
      "Ġtechn": 1215,
      "Ġvi": 1216,
      "Ġvalue": 1217,
      "ety": 1218,
      "Ġnon": 1219,
      "agn": 1220,
      "Ġconsid": 1221,
      "Ġocc": 1222,
      "Ġi": 1223,
      "iqu": 1224,
      "ulation": 1225,
      "ality": 1226,
      "Ġcalled": 1227,
      "ains": 1228,
      "ctions": 1229,
      "Ġfollowing": 1230,
      "Ġpop": 1231,
      "Ġ12": 1232,
      "Ġagain": 1233,
      "Ġless": 1234,
      "Ġenergy": 1235,
      "//": 1236,
      "stand": 1237,
      "ĠBut": 1238,
      "Ġstart": 1239,
      "Ġthink": 1240,
      "Ġanal": 1241,
      "Ġimportant": 1242,
      "sc": 1243,
      "Ġz": 1244,
      "ote": 1245,
      "Ġlarge": 1246,
      "ished": 1247,
      "ets": 1248,
      "Ġmult": 1249,
      "ivid": 1250,
      "Ġtoo": 1251,
      "ah": 1252,
      "akes": 1253,
      "any": 1254,
      "Ġtake": 1255,
      "Ġcell": 1256,
      "here": 1257,
      "Ġgl": 1258,
      "Ġoper": 1259,
      "of": 1260,
      "pos": 1261,
      "ves": 1262,
      "Ġlook": 1263,
      "ven": 1264,
      "Ġ199": 1265,
      "Ġmet": 1266,
      "ives": 1267,
      "Ġlead": 1268,
      "Ġown": 1269,
      "Ġcase": 1270,
      "itive": 1271,
      "Ġmem": 1272,
      "Ġdid": 1273,
      "Ġconf": 1274,
      "Ġpower": 1275,
      "oh": 1276,
      "Ġwhile": 1277,
      "Ġcommun": 1278,
      "ision": 1279,
      "ters": 1280,
      "Ġdown": 1281,
      "Ġmain": 1282,
      "Ġwant": 1283,
      ",\"": 1284,
      "Ġlit": 1285,
      "ug": 1286,
      "Ġhy": 1287,
      "Ġplan": 1288,
      "Ġcontin": 1289,
      "viron": 1290,
      "ton": 1291,
      "Ġhere": 1292,
      "âĢĶ": 1293,
      "Ġstand": 1294,
      "hip": 1295,
      "Ġ15": 1296,
      "Ġchildren": 1297,
      "ĠX": 1298,
      "ĠZ": 1299,
      "acter": 1300,
      "Ġredu": 1301,
      "ional": 1302,
      "ĠPh": 1303,
      "oss": 1304,
      "Ġtra": 1305,
      "ument": 1306,
      "ĠYou": 1307,
      "man": 1308,
      "Ġdesc": 1309,
      "atic": 1310,
      "ious": 1311,
      "Ġdon": 1312,
      "ĠThey": 1313,
      "ross": 1314,
      "Ġsupport": 1315,
      "self": 1316,
      "val": 1317,
      "ience": 1318,
      "Ġgrow": 1319,
      "Ġhand": 1320,
      "ified": 1321,
      "ta": 1322,
      "ared": 1323,
      "Ġhist": 1324,
      "ĠAnd": 1325,
      "Ġtreat": 1326,
      "ray": 1327,
      "ify": 1328,
      "ots": 1329,
      "ik": 1330,
      "Ġtem": 1331,
      "rm": 1332,
      "ash": 1333,
      "Ġlife": 1334,
      "par": 1335,
      "Ġperson": 1336,
      "pen": 1337,
      "erest": 1338,
      "ĠThere": 1339,
      "Ġproper": 1340,
      "Ġdesign": 1341,
      "lear": 1342,
      "Ġsk": 1343,
      "Ġoften": 1344,
      "Ġorder": 1345,
      "ĠDe": 1346,
      "ource": 1347,
      "Ġchange": 1348,
      "Ġallow": 1349,
      "ired": 1350,
      "Ġet": 1351,
      "Ġhim": 1352,
      "irc": 1353,
      "omen": 1354,
      "Ġsym": 1355,
      "Ġris": 1356,
      "Ġstudents": 1357,
      "ration": 1358,
      "ĠInd": 1359,
      "Ġserv": 1360,
      "ger": 1361,
      "Ġthough": 1362,
      "ĠCon": 1363,
      "Ġbel": 1364,
      "Ġreal": 1365,
      "Ġtri": 1366,
      "ym": 1367,
      "ained": 1368,
      "Ġpresent": 1369,
      "ĠĠĠĠĠĠĠĠ": 1370,
      "Ġsl": 1371,
      "Ġstill": 1372,
      "Ġreport": 1373,
      "Ġobject": 1374,
      "rodu": 1375,
      "text": 1376,
      "Ġcommon": 1377,
      "Â·Â·": 1378,
      "||": 1379,
      "ĠUniversity": 1380,
      "Ġprob": 1381,
      "ples": 1382,
      "vironment": 1383,
      "conom": 1384,
      "ĠIs": 1385,
      "Ġmight": 1386,
      "Ġresearch": 1387,
      "olution": 1388,
      "ner": 1389,
      "Ġchang": 1390,
      "Ġ,": 1391,
      "Ġeas": 1392,
      "Ġtyp": 1393,
      "Ġcurrent": 1394,
      "Ġfood": 1395,
      "ason": 1396,
      "Ġsecond": 1397,
      "Ġaround": 1398,
      "Ġide": 1399,
      "ertain": 1400,
      "Ġschool": 1401,
      "50": 1402,
      "ole": 1403,
      "Ġinteg": 1404,
      "day": 1405,
      "Ġmean": 1406,
      "Ġknown": 1407,
      "aj": 1408,
      "iod": 1409,
      "Ġprogram": 1410,
      "ium": 1411,
      "Ġarea": 1412,
      "Ġpossible": 1413,
      "Ġwithout": 1414,
      "Ġgu": 1415,
      "200": 1416,
      "Ġgroup": 1417,
      "Ġphys": 1418,
      "Ġcomput": 1419,
      "Ġlim": 1420,
      "ĠSh": 1421,
      "Ġday": 1422,
      "ense": 1423,
      "play": 1424,
      "ring": 1425,
      "aterial": 1426,
      ")$": 1427,
      "way": 1428,
      "Ġdise": 1429,
      "Ġtop": 1430,
      "Ġbas": 1431,
      "oint": 1432,
      "30": 1433,
      "ially": 1434,
      "rop": 1435,
      "Ġansw": 1436,
      "Ġproduct": 1437,
      "ital": 1438,
      "Ġwrit": 1439,
      "Ġter": 1440,
      "Ġ16": 1441,
      "ivity": 1442,
      "Ġanother": 1443,
      "Ġcour": 1444,
      "ior": 1445,
      "yle": 1446,
      "Ġident": 1447,
      "ĠCl": 1448,
      "orn": 1449,
      "Ġpres": 1450,
      "ering": 1451,
      "----": 1452,
      "oid": 1453,
      "Ġrad": 1454,
      "Ġsay": 1455,
      "ury": 1456,
      "Ġ<": 1457,
      "Ġinterest": 1458,
      "ĠWh": 1459,
      "Ġbeh": 1460,
      "Ġincluding": 1461,
      "Ġtype": 1462,
      "Ġprot": 1463,
      "face": 1464,
      "Ġcalcul": 1465,
      "Ġfew": 1466,
      "Ġunderstand": 1467,
      "Ġfin": 1468,
      "Ġspace": 1469,
      "Ġbre": 1470,
      "Ġorgan": 1471,
      "Ġgovern": 1472,
      "amet": 1473,
      "not": 1474,
      "Ġgreat": 1475,
      "Ġgre": 1476,
      "view": 1477,
      "ĊĊ": 1478,
      "ĠRes": 1479,
      "Ġabove": 1480,
      "Ġhuman": 1481,
      "Ġperform": 1482,
      "hers": 1483,
      "Ġvol": 1484,
      "Ġproject": 1485,
      "ination": 1486,
      "Ġobs": 1487,
      "Ġsince": 1488,
      "oms": 1489,
      "Ġpublic": 1490,
      "less": 1491,
      "ank": 1492,
      "Ġadv": 1493,
      "ĠAd": 1494,
      "ead": 1495,
      "mathb": 1496,
      "Ġlight": 1497,
      "oun": 1498,
      "Ġstruct": 1499,
      "ailable": 1500,
      "Ġdem": 1501,
      "We": 1502,
      "for": 1503,
      "Ġpost": 1504,
      "Ġcare": 1505,
      "ilar": 1506,
      ".âĢĿ": 1507,
      "alk": 1508,
      "Ġquestion": 1509,
      "Ġresults": 1510,
      "ouse": 1511,
      "Ġmeasure": 1512,
      "etic": 1513,
      "Ġspe": 1514,
      "Ġ17": 1515,
      "Ġvis": 1516,
      "Ġwithin": 1517,
      "Ġdirect": 1518,
      "Ġlast": 1519,
      "Ġrun": 1520,
      "Ġbuild": 1521,
      "iles": 1522,
      "Ġpass": 1523,
      "Ġorig": 1524,
      "Ġland": 1525,
      "Ġlist": 1526,
      "Ġbased": 1527,
      "eral": 1528,
      "ÂłÂł": 1529,
      "Ġcap": 1530,
      "ww": 1531,
      "Ġer": 1532,
      "Ġdeterm": 1533,
      "Ġlow": 1534,
      "Ġaff": 1535,
      "ression": 1536,
      "atural": 1537,
      "utions": 1538,
      "ern": 1539,
      "Ġinc": 1540,
      "ries": 1541,
      "Ġche": 1542,
      "aving": 1543,
      "Ġplace": 1544,
      "ateg": 1545,
      "ources": 1546,
      "ĠTo": 1547,
      "Ġcontrol": 1548,
      "Ġpercent": 1549,
      "angu": 1550,
      "Ġbody": 1551,
      "rix": 1552,
      "Ġparticular": 1553,
      "els": 1554,
      "bs": 1555,
      "az": 1556,
      "Ġdistrib": 1557,
      "Ġ14": 1558,
      "25": 1559,
      "bl": 1560,
      "ording": 1561,
      "osed": 1562,
      "rid": 1563,
      "Ġgeneral": 1564,
      "gen": 1565,
      "ysis": 1566,
      "Ġlet": 1567,
      "Ġrest": 1568,
      "ither": 1569,
      "Ġpot": 1570,
      "Ġname": 1571,
      "lish": 1572,
      "ĠAmerican": 1573,
      "Ġel": 1574,
      "outh": 1575,
      "ffic": 1576,
      "Ġoccur": 1577,
      "over": 1578,
      "Ġmeans": 1579,
      "Ġcorre": 1580,
      "ference": 1581,
      "Ġsum": 1582,
      "Ġview": 1583,
      "Ġsays": 1584,
      "ological": 1585,
      "vious": 1586,
      "Ġsing": 1587,
      ");": 1588,
      "Ġplay": 1589,
      "ength": 1590,
      "ways": 1591,
      "Ġhig": 1592,
      "Ġmaterial": 1593,
      "yn": 1594,
      "me": 1595,
      "ĠThese": 1596,
      "ividual": 1597,
      "Ġproblems": 1598,
      "://": 1599,
      "illion": 1600,
      "ames": 1601,
      "Ġfre": 1602,
      "aper": 1603,
      "Ġdiff": 1604,
      "ently": 1605,
      "plic": 1606,
      "itional": 1607,
      "ission": 1608,
      "Ġsit": 1609,
      "ably": 1610,
      "If": 1611,
      "hor": 1612,
      "Ġsever": 1613,
      "It": 1614,
      "min": 1615,
      "Ġiss": 1616,
      "Ġlaw": 1617,
      "ĠSp": 1618,
      "ĠSo": 1619,
      "orth": 1620,
      "ĠEng": 1621,
      "Ġrepresent": 1622,
      "St": 1623,
      "aces": 1624,
      "Ġprof": 1625,
      "Ġcaus": 1626,
      "Ġ#": 1627,
      "Ġpri": 1628,
      "Ġavailable": 1629,
      "ived": 1630,
      "ĠWhat": 1631,
      "arent": 1632,
      "oad": 1633,
      "ĠHowever": 1634,
      "lished": 1635,
      "Ġinclude": 1636,
      "Ġtimes": 1637,
      "ume": 1638,
      "gin": 1639,
      "erc": 1640,
      "iver": 1641,
      "imal": 1642,
      "Ġfield": 1643,
      "Ġpract": 1644,
      "Ġmark": 1645,
      "ope": 1646,
      "Ġstandard": 1647,
      "ann": 1648,
      "Ġmulti": 1649,
      "Ġperiod": 1650,
      "hemat": 1651,
      "ving": 1652,
      "Ġâ": 1653,
      "Ġ*": 1654,
      "ormal": 1655,
      "Ġvalues": 1656,
      "Ġopt": 1657,
      "Ġpur": 1658,
      "ccess": 1659,
      "Ġblood": 1660,
      "):": 1661,
      "Ġenvironment": 1662,
      "ients": 1663,
      "Ġbetter": 1664,
      "xt": 1665,
      "Ġmass": 1666,
      "uro": 1667,
      "Ġseem": 1668,
      "Ġ13": 1669,
      "Ġimpro": 1670,
      "mit": 1671,
      "Ġtext": 1672,
      "Ġindividual": 1673,
      "Ġbelie": 1674,
      "ences": 1675,
      "Ġeconom": 1676,
      "arc": 1677,
      "Ġlab": 1678,
      "ocial": 1679,
      "ns": 1680,
      "Ġseveral": 1681,
      "Ġgra": 1682,
      "ajor": 1683,
      "Ġopen": 1684,
      "Ġ$$\\": 1685,
      "work": 1686,
      "dis": 1687,
      "Ġrisk": 1688,
      "ables": 1689,
      "ided": 1690,
      "22": 1691,
      "Ġtrad": 1692,
      "Ġ)": 1693,
      "Ġdescrib": 1694,
      "med": 1695,
      "Ġnear": 1696,
      "Ġ/": 1697,
      "Ġold": 1698,
      "ograph": 1699,
      "Ġfour": 1700,
      "Ġexam": 1701,
      "Ġdevelopment": 1702,
      "ators": 1703,
      "ĠÂł": 1704,
      "(\\": 1705,
      "ĠWhen": 1706,
      "aps": 1707,
      "Ġeng": 1708,
      "Ġeduc": 1709,
      "Ġ>": 1710,
      "Ġcomb": 1711,
      "ĠCol": 1712,
      "Ġdisease": 1713,
      "ware": 1714,
      "igure": 1715,
      "Ġfore": 1716,
      "Ġnumbers": 1717,
      "ental": 1718,
      "idence": 1719,
      "pect": 1720,
      "ĠAt": 1721,
      "stit": 1722,
      "ats": 1723,
      "rue": 1724,
      "Ġbest": 1725,
      "ĠEn": 1726,
      "Ġver": 1727,
      "Ġobserv": 1728,
      "ians": 1729,
      "amp": 1730,
      "Ġapplic": 1731,
      "use": 1732,
      "ometh": 1733,
      "ĠPl": 1734,
      "ggest": 1735,
      "urther": 1736,
      "ĠâĢĶ": 1737,
      "Ġcost": 1738,
      "Ġwr": 1739,
      "Ġmove": 1740,
      "Ġexist": 1741,
      "bol": 1742,
      "Ġpress": 1743,
      "omething": 1744,
      "be": 1745,
      "Ġtre": 1746,
      "ĠOn": 1747,
      "lu": 1748,
      "40": 1749,
      "ule": 1750,
      "Ġterm": 1751,
      "Ġcharacter": 1752,
      "Ġ--": 1753,
      "Ġcertain": 1754,
      "Ġsystems": 1755,
      "ĠOr": 1756,
      "ends": 1757,
      "cing": 1758,
      "Ġleast": 1759,
      "Ġfree": 1760,
      "nal": 1761,
      "osp": 1762,
      "Ġpred": 1763,
      "Ġprovide": 1764,
      "ER": 1765,
      "Ġscient": 1766,
      "Ġair": 1767,
      "Ġsimilar": 1768,
      "ention": 1769,
      "ĠUnited": 1770,
      "eb": 1771,
      "though": 1772,
      "pro": 1773,
      "Ġtry": 1774,
      "rist": 1775,
      "AT": 1776,
      "Ġlocal": 1777,
      "Ġbo": 1778,
      "Ġcho": 1779,
      "ended": 1780,
      "Ġopp": 1781,
      "Ġunt": 1782,
      "Ġinvol": 1783,
      "Ġgovernment": 1784,
      "Ġspecies": 1785,
      "Ġthings": 1786,
      "Ġ11": 1787,
      "Ġ...": 1788,
      "ids": 1789,
      "}$$": 1790,
      "Ġequation": 1791,
      "Ġsuggest": 1792,
      "Ġes": 1793,
      "ane": 1794,
      "Ġsignific": 1795,
      "Ġsize": 1796,
      "Ġcode": 1797,
      "Ġlangu": 1798,
      "Ġwar": 1799,
      "ised": 1800,
      "org": 1801,
      "Ġartic": 1802,
      "Ġmajor": 1803,
      "amb": 1804,
      "Ġearly": 1805,
      "Ġtemper": 1806,
      "Ġassoci": 1807,
      "Ġnet": 1808,
      "Ġagainst": 1809,
      "istic": 1810,
      "Ġdel": 1811,
      "ories": 1812,
      "Ġcirc": 1813,
      "$.": 1814,
      "ror": 1815,
      "Ġbi": 1816,
      "Ġleft": 1817,
      ",âĢĿ": 1818,
      "Ġconn": 1819,
      "Ġmar": 1820,
      "Ġnatural": 1821,
      "Ġstep": 1822,
      "ĠSc": 1823,
      "Ġrate": 1824,
      "ĠCan": 1825,
      "ances": 1826,
      "Ġside": 1827,
      "ape": 1828,
      "Ġfar": 1829,
      "Ġmonth": 1830,
      "Ġ30": 1831,
      "60": 1832,
      "ember": 1833,
      "Ġfile": 1834,
      "Ġtheory": 1835,
      "Ġable": 1836,
      "Ġreturn": 1837,
      "Ġpoints": 1838,
      "Ġdiscuss": 1839,
      "Ġant": 1840,
      "ĠLe": 1841,
      "ina": 1842,
      "Ġsomething": 1843,
      "\",": 1844,
      "____": 1845,
      "âĪĴ": 1846,
      "Ġappear": 1847,
      "Ġsingle": 1848,
      "Ġwomen": 1849,
      "ek": 1850,
      "For": 1851,
      "Ġhead": 1852,
      "ification": 1853,
      "ooks": 1854,
      "ively": 1855,
      "ĠAll": 1856,
      "Ġhard": 1857,
      "Ġanswer": 1858,
      "Ġput": 1859,
      "Ġamount": 1860,
      "))": 1861,
      "ĠStates": 1862,
      "Ġdev": 1863,
      "Ġbelow": 1864,
      "Ġshort": 1865,
      "80": 1866,
      "Ġquant": 1867,
      "ĠQu": 1868,
      "Ġlearn": 1869,
      "Ġsolution": 1870,
      "Ġbook": 1871,
      "Ġamong": 1872,
      "Ġhapp": 1873,
      "Ġfamily": 1874,
      "Ġlog": 1875,
      "âĢī": 1876,
      "Ġtot": 1877,
      "Ġleg": 1878,
      "ĠCent": 1879,
      "ler": 1880,
      "Ġben": 1881,
      "aining": 1882,
      "Ġhome": 1883,
      "ately": 1884,
      "Ġflow": 1885,
      "lease": 1886,
      "ibr": 1887,
      "Ġpotential": 1888,
      "Ġsurface": 1889,
      "Ġvers": 1890,
      "Ġbecome": 1891,
      "Ġalways": 1892,
      "ird": 1893,
      "ĠNational": 1894,
      "Ġdra": 1895,
      "Ġlittle": 1896,
      "por": 1897,
      "Ġmen": 1898,
      "Ġrece": 1899,
      "Ġcomplex": 1900,
      "Ġhistory": 1901,
      "part": 1902,
      "Ġnext": 1903,
      "Ġmov": 1904,
      "verage": 1905,
      "Ġinit": 1906,
      "imens": 1907,
      "Ġlater": 1908,
      "Ġgive": 1909,
      "Ġconditions": 1910,
      "23": 1911,
      "Ġarg": 1912,
      "Ġcells": 1913,
      "yl": 1914,
      "Ġmot": 1915,
      "ystem": 1916,
      "âĢľ": 1917,
      "Ġkeep": 1918,
      "by": 1919,
      "==": 1920,
      "Ġcause": 1921,
      "gor": 1922,
      "\".": 1923,
      "Ġdefin": 1924,
      "Ġsw": 1925,
      "style": 1926,
      "ĠMat": 1927,
      "omm": 1928,
      "Ġconsider": 1929,
      "epend": 1930,
      "Ġhigher": 1931,
      "ĠTe": 1932,
      "Ġcourse": 1933,
      "aken": 1934,
      "Ġindic": 1935,
      "Ġgraph": 1936,
      "Ġturn": 1937,
      "Ġareas": 1938,
      "ĠCal": 1939,
      "Ġcomplete": 1940,
      "Ġwhether": 1941,
      "Ġeither": 1942,
      "lection": 1943,
      "Ġ}": 1944,
      "Ġtreatment": 1945,
      "Ġfunctions": 1946,
      "Ġsignificant": 1947,
      "Ġmus": 1948,
      "pre": 1949,
      "24": 1950,
      "Ġpaper": 1951,
      "Ġworks": 1952,
      "Ġsqu": 1953,
      "Ġge": 1954,
      "Ġalong": 1955,
      "Ġdue": 1956,
      "andom": 1957,
      "imum": 1958,
      "Ġclear": 1959,
      "ocument": 1960,
      "Ġwhy": 1961,
      "Ġask": 1962,
      "Ġdeg": 1963,
      "Ġpain": 1964,
      "sp": 1965,
      "Ġintern": 1966,
      "ges": 1967,
      "ĠSci": 1968,
      "inc": 1969,
      "Ġstat": 1970,
      "ogn": 1971,
      "Ġbro": 1972,
      "af": 1973,
      "ero": 1974,
      "iving": 1975,
      "Ġanalysis": 1976,
      "ored": 1977,
      "AS": 1978,
      "Ġuntil": 1979,
      "ok": 1980,
      "sh": 1981,
      "Ġcontinu": 1982,
      "Ġusually": 1983,
      "Ġaccess": 1984,
      "ged": 1985,
      "angle": 1986,
      "=\\": 1987,
      "ript": 1988,
      "ĠMay": 1989,
      "iness": 1990,
      "Ġtrain": 1991,
      "Ġcome": 1992,
      "Ġreason": 1993,
      "Ġbehav": 1994,
      "aster": 1995,
      "Ġchanges": 1996,
      "Ġrange": 1997,
      "Ġkey": 1998,
      "une": 1999,
      "Ġder": 2000,
      "Ġage": 2001,
      "Ġparamet": 2002,
      "Ġterms": 2003,
      "Ã©": 2004,
      "Ġsuccess": 2005,
      "Ġsimple": 2006,
      "rap": 2007,
      "Ġhtt": 2008,
      "ournal": 2009,
      "As": 2010,
      "ique": 2011,
      ".)": 2012,
      "ris": 2013,
      "An": 2014,
      "Ġenc": 2015,
      "rt": 2016,
      "Ġspecial": 2017,
      "alf": 2018,
      "oph": 2019,
      "Ġinvest": 2020,
      "icult": 2021,
      "set": 2022,
      "ĠMed": 2023,
      "Ġdri": 2024,
      "gorith": 2025,
      "####": 2026,
      "21": 2027,
      "Ġothers": 2028,
      "itud": 2029,
      "Ġpopulation": 2030,
      "obal": 2031,
      "ĠÂ": 2032,
      "atch": 2033,
      "fer": 2034,
      "$,": 2035,
      "Ġreally": 2036,
      "ĠWor": 2037,
      "Ġ25": 2038,
      "atory": 2039,
      "ploy": 2040,
      "ĠâĢĺ": 2041,
      "Ġsocial": 2042,
      "Ġbound": 2043,
      "Ġlower": 2044,
      "Ġstrong": 2045,
      "Ġnecess": 2046,
      "Ġcancer": 2047,
      "Ġfrequ": 2048,
      "Ġlength": 2049,
      "asing": 2050,
      "Ġdays": 2051,
      "thing": 2052,
      "Ġhowever": 2053,
      "str": 2054,
      "most": 2055,
      "Ġlevels": 2056,
      "Ġang": 2057,
      "Ġill": 2058,
      "Ġrecord": 2059,
      "ĠComm": 2060,
      "elf": 2061,
      "Ġ100": 2062,
      "Ġpath": 2063,
      "ula": 2064,
      "mathrm": 2065,
      "ĠGen": 2066,
      "Ġgoing": 2067,
      "cal": 2068,
      "Ġtotal": 2069,
      "Ġchem": 2070,
      "ĠÎ": 2071,
      "Ġcult": 2072,
      "Ġcases": 2073,
      "Ġlikely": 2074,
      "Ġdone": 2075,
      "idd": 2076,
      "70": 2077,
      "Ġfull": 2078,
      "Ġart": 2079,
      "action": 2080,
      "ĠThat": 2081,
      "ĠGe": 2082,
      "Ġstructure": 2083,
      "atures": 2084,
      "ling": 2085,
      "chan": 2086,
      "Ġflu": 2087,
      "Ġincrease": 2088,
      "Ġspecific": 2089,
      "ready": 2090,
      "Ġenough": 2091,
      "icro": 2092,
      "Ġnever": 2093,
      "Ġestim": 2094,
      "wh": 2095,
      "urope": 2096,
      "Ġrespect": 2097,
      "Ġ65": 2098,
      "Ġkind": 2099,
      "ĠChrist": 2100,
      "ĠUS": 2101,
      "There": 2102,
      "Ġabs": 2103,
      "Ġtrue": 2104,
      "arth": 2105,
      "ands": 2106,
      "Ġgr": 2107,
      "itor": 2108,
      "Ġcrit": 2109,
      "Ġprevent": 2110,
      "Ġheart": 2111,
      "ending": 2112,
      "ĠJoh": 2113,
      "¿½": 2114,
      "Ġsource": 2115,
      "mber": 2116,
      "Ġdom": 2117,
      "ï¿½": 2118,
      "earch": 2119,
      "ilities": 2120,
      "ee": 2121,
      "Ġneg": 2122,
      "ĠGod": 2123,
      "bra": 2124,
      "ES": 2125,
      "let": 2126,
      "....": 2127,
      "29": 2128,
      "bit": 2129,
      "ruction": 2130,
      "uture": 2131,
      "Ġtoget": 2132,
      "Ġauthor": 2133,
      "Ġapproach": 2134,
      "Ġtogether": 2135,
      "display": 2136,
      "Ġcountry": 2137,
      "Ġsure": 2138,
      "34": 2139,
      "What": 2140,
      "oot": 2141,
      "Ġmagn": 2142,
      "Ġlearning": 2143,
      "Ġdistribution": 2144,
      "AR": 2145,
      "duct": 2146,
      "nces": 2147,
      "Ġwords": 2148,
      "Ġcorrect": 2149,
      "Ġmillion": 2150,
      "rans": 2151,
      "Ġweight": 2152,
      "ocus": 2153,
      "Ġhaving": 2154,
      "Ġlanguage": 2155,
      "Ġwind": 2156,
      "ott": 2157,
      "Ġmatrix": 2158,
      "**": 2159,
      "Ġexperim": 2160,
      "Ġgroups": 2161,
      "ones": 2162,
      "Ġalready": 2163,
      "ledge": 2164,
      "Ġhour": 2165,
      "ĠBl": 2166,
      "opy": 2167,
      "Ġtypes": 2168,
      "rict": 2169,
      "ery": 2170,
      "ival": 2171,
      "Ġeffects": 2172,
      "ĠApp": 2173,
      "Ġbus": 2174,
      "Ġfil": 2175,
      "Ġcreate": 2176,
      "$\\": 2177,
      "Ġobt": 2178,
      "ills": 2179,
      "39": 2180,
      "Ġtool": 2181,
      ")(": 2182,
      "Ġcannot": 2183,
      "Ġdetail": 2184,
      "cd": 2185,
      "Ġseries": 2186,
      "Ġpast": 2187,
      "resp": 2188,
      "26": 2189,
      "Ġstates": 2190,
      "Ġdifficult": 2191,
      "27": 2192,
      "displaystyle": 2193,
      "Ġradi": 2194,
      "ĠEurope": 2195,
      "Ġmaking": 2196,
      "Ġsequ": 2197,
      "aves": 2198,
      "qrt": 2199,
      "Ġrequire": 2200,
      "Ġquestions": 2201,
      "IN": 2202,
      "Ġ24": 2203,
      "Ġprom": 2204,
      "ĠCont": 2205,
      "aim": 2206,
      "ĠAf": 2207,
      "utes": 2208,
      "ung": 2209,
      "Ġmax": 2210,
      "ĠNo": 2211,
      "plement": 2212,
      "inary": 2213,
      "Ġfurther": 2214,
      "verse": 2215,
      "Ġsite": 2216,
      "Ġsubject": 2217,
      "ĠMar": 2218,
      "ties": 2219,
      "Ġ2012": 2220,
      "Ġrather": 2221,
      "egin": 2222,
      "pi": 2223,
      "reg": 2224,
      "Ġworking": 2225,
      "Ġinput": 2226,
      "},": 2227,
      "Ġvir": 2228,
      "28": 2229,
      "99": 2230,
      "Ġphot": 2231,
      "ĠIntern": 2232,
      "Ġaccount": 2233,
      "Ġprevious": 2234,
      "Ġbegin": 2235,
      "ilit": 2236,
      "where": 2237,
      "rug": 2238,
      "co": 2239,
      "apt": 2240,
      "ON": 2241,
      "Ġimage": 2242,
      "reen": 2243,
      "Ġnormal": 2244,
      "Ġshown": 2245,
      "Ġmakes": 2246,
      "Ġfac": 2247,
      "35": 2248,
      "Ġyoung": 2249,
      "ards": 2250,
      "Ġoutput": 2251,
      "Ġintrodu": 2252,
      "Ġalgorith": 2253,
      "ĠOne": 2254,
      "Ġsaf": 2255,
      "ley": 2256,
      "pecially": 2257,
      "ĠAss": 2258,
      "Ġprim": 2259,
      "ĠBe": 2260,
      "Ġfund": 2261,
      "ales": 2262,
      "Ġclose": 2263,
      "Ġvarious": 2264,
      "mathbf": 2265,
      "To": 2266,
      "cur": 2267,
      "Ġequal": 2268,
      "Ġstudies": 2269,
      "Ġbenef": 2270,
      "Ġacross": 2271,
      "Ġpressure": 2272,
      "Ġactiv": 2273,
      "Ġpredict": 2274,
      "Ġpoly": 2275,
      "Ġrelated": 2276,
      "'re": 2277,
      "Ġpric": 2278,
      "ask": 2279,
      "Ġsens": 2280,
      "Ġarticle": 2281,
      "ream": 2282,
      "rack": 2283,
      "ublic": 2284,
      "Ġrelations": 2285,
      "Ġestab": 2286,
      "ĠBy": 2287,
      "rams": 2288,
      "Ġpolit": 2289,
      "Ġrelative": 2290,
      "uation": 2291,
      "Ġfail": 2292,
      "ipp": 2293,
      "Ġforce": 2294,
      "Ġsepar": 2295,
      "Ġ50": 2296,
      "ches": 2297,
      "bon": 2298,
      "ĠIm": 2299,
      "Ġfuture": 2300,
      "Ġplant": 2301,
      "Ġ23": 2302,
      "Ġaway": 2303,
      "ortun": 2304,
      "Ġactually": 2305,
      "Ġshows": 2306,
      "Ġtemperature": 2307,
      "side": 2308,
      "ned": 2309,
      "istics": 2310,
      "pha": 2311,
      "Ġ198": 2312,
      "Ġpage": 2313,
      "ociety": 2314,
      "Ġground": 2315,
      "Ġlay": 2316,
      "Ch": 2317,
      "Ġseen": 2318,
      "Ġindust": 2319,
      "ires": 2320,
      "like": 2321,
      "Ġfocus": 2322,
      "Ġrandom": 2323,
      "ilt": 2324,
      "ĠCar": 2325,
      "rel": 2326,
      "usion": 2327,
      "Ġcentury": 2328,
      "Ġcommunity": 2329,
      "Ġpositive": 2330,
      "Ġscience": 2331,
      "oll": 2332,
      "Ġcheck": 2333,
      "de": 2334,
      "Ġwhole": 2335,
      "lying": 2336,
      "Ġsat": 2337,
      "Ġconcept": 2338,
      "ibility": 2339,
      "anc": 2340,
      "Ġresearc": 2341,
      "ĠSome": 2342,
      "met": 2343,
      "Ġconver": 2344,
      "Ġfeel": 2345,
      "Al": 2346,
      "omes": 2347,
      "eed": 2348,
      "roll": 2349,
      "Ġaverage": 2350,
      "inter": 2351,
      "Ġann": 2352,
      "sqrt": 2353,
      "Ġaddition": 2354,
      "Ġparent": 2355,
      "Ġport": 2356,
      "cle": 2357,
      "aries": 2358,
      "ober": 2359,
      "wise": 2360,
      "Ġago": 2361,
      "agement": 2362,
      "Ġaccording": 2363,
      "Ġtaken": 2364,
      "ae": 2365,
      "Ġbrain": 2366,
      "iting": 2367,
      "Ġsuper": 2368,
      "ĠWar": 2369,
      "Ġpolic": 2370,
      "ĠWith": 2371,
      "Ġtell": 2372,
      "Ġevent": 2373,
      "ows": 2374,
      "Ġways": 2375,
      "Ġassociated": 2376,
      "Ġgas": 2377,
      "ä¸": 2378,
      "begin": 2379,
      "ault": 2380,
      "Ġrequired": 2381,
      "ĠHealth": 2382,
      "Ġbig": 2383,
      "Ġdiv": 2384,
      "Ġdeath": 2385,
      "Ġneeds": 2386,
      "Ġloss": 2387,
      "ene": 2388,
      "Ġphysical": 2389,
      "}^{": 2390,
      "ometimes": 2391,
      "Ex": 2392,
      "Ġcontrib": 2393,
      "atter": 2394,
      "33": 2395,
      "Ġconstant": 2396,
      "Ġcy": 2397,
      "Ġidea": 2398,
      "Ġdig": 2399,
      "How": 2400,
      "ush": 2401,
      "ĠAb": 2402,
      "equ": 2403,
      "Ġitself": 2404,
      "Ġimplement": 2405,
      "ites": 2406,
      "You": 2407,
      "Ġbir": 2408,
      "chie": 2409,
      "()": 2410,
      "ixed": 2411,
      "ĠJan": 2412,
      "Ġmedic": 2413,
      "ĠRep": 2414,
      "ply": 2415,
      "Ġneeded": 2416,
      "cos": 2417,
      "ĠGo": 2418,
      "Ġcompon": 2419,
      "Ġtoday": 2420,
      "Ġoriginal": 2421,
      "da": 2422,
      "overed": 2423,
      "45": 2424,
      "Ġcountries": 2425,
      "Ġword": 2426,
      "Ġlot": 2427,
      "Ġlink": 2428,
      "âĢ¦": 2429,
      "Ġposition": 2430,
      "Ġeffic": 2431,
      "Ġregion": 2432,
      "Ġdr": 2433,
      "ĠWorld": 2434,
      "Ġconcer": 2435,
      "Ġdefined": 2436,
      "Ġeducation": 2437,
      "Ġelements": 2438,
      "100": 2439,
      "ison": 2440,
      "Ġred": 2441,
      "aced": 2442,
      "Ġaddress": 2443,
      "Ġprofess": 2444,
      "Ġimprove": 2445,
      "ĠInt": 2446,
      "ĠSu": 2447,
      "Ġespecially": 2448,
      "ï¼": 2449,
      ")\\": 2450,
      "empt": 2451,
      "Ġ2011": 2452,
      "ules": 2453,
      "uments": 2454,
      "Ġhalf": 2455,
      "Ġmechan": 2456,
      "],": 2457,
      "place": 2458,
      "Ġlinear": 2459,
      "'m": 2460,
      "fficient": 2461,
      "lim": 2462,
      "ĠMan": 2463,
      "Ġdeveloped": 2464,
      "Ġonce": 2465,
      "aut": 2466,
      "sequ": 2467,
      "eta": 2468,
      "Ġimpact": 2469,
      "sy": 2470,
      "oney": 2471,
      "Wh": 2472,
      "ĠAfric": 2473,
      "ĠMe": 2474,
      "Ġrespons": 2475,
      "Ġconsidered": 2476,
      "raction": 2477,
      "Ġmethods": 2478,
      "Ġcoll": 2479,
      "Ġpatients": 2480,
      "Ġproduction": 2481,
      "AN": 2482,
      "Ġfall": 2483,
      "Ġinflu": 2484,
      "ĠEarth": 2485,
      "lected": 2486,
      "anks": 2487,
      "uted": 2488,
      "artment": 2489,
      "Ġcondition": 2490,
      "Ġthought": 2491,
      "Ġimm": 2492,
      "ĠState": 2493,
      "Ġequations": 2494,
      "itude": 2495,
      "Ġcr": 2496,
      "Ġengine": 2497,
      "selves": 2498,
      "Ġgrowth": 2499,
      "36": 2500,
      "Ġdam": 2501,
      "Ġpack": 2502,
      "lied": 2503,
      "ensity": 2504,
      "aring": 2505,
      "ĠYork": 2506,
      "Ġprovided": 2507,
      "Ġvector": 2508,
      "unt": 2509,
      "mon": 2510,
      "Ġteam": 2511,
      "Ġdou": 2512,
      "Ġdifference": 2513,
      "Ġmodels": 2514,
      "90": 2515,
      "Ġyet": 2516,
      "Ġexact": 2517,
      "Ġ2010": 2518,
      "Ġeval": 2519,
      "my": 2520,
      "ynam": 2521,
      "Ġthing": 2522,
      "ĠGerm": 2523,
      "Ġey": 2524,
      "Ġsense": 2525,
      "Ġprovides": 2526,
      "ĠAug": 2527,
      "Ġpattern": 2528,
      "Ġcomputer": 2529,
      "arrow": 2530,
      "sing": 2531,
      "Ġevidence": 2532,
      "ĠStud": 2533,
      "ront": 2534,
      "Ġelement": 2535,
      "ĠCo": 2536,
      "Ġmathemat": 2537,
      "urch": 2538,
      "Ġblack": 2539,
      "Ġself": 2540,
      "Ġess": 2541,
      "oman": 2542,
      "Ġapprox": 2543,
      "ptoms": 2544,
      "75": 2545,
      "iam": 2546,
      "Ġcorresp": 2547,
      "att": 2548,
      "Ġupon": 2549,
      "Ġentire": 2550,
      "ĠDis": 2551,
      "dd": 2552,
      "uel": 2553,
      "arget": 2554,
      "_{\\": 2555,
      "Ġrele": 2556,
      "Ġalmost": 2557,
      "Ġinstead": 2558,
      "onse": 2559,
      "ĠÂłĠÂł": 2560,
      "ising": 2561,
      "Ġ\\\\": 2562,
      "Ġdoesn": 2563,
      "ĠJohn": 2564,
      "ĠScience": 2565,
      "wards": 2566,
      "Ġoffic": 2567,
      "Ġbecame": 2568,
      "Ġexpress": 2569,
      "Ġassum": 2570,
      "ields": 2571,
      "Ġparts": 2572,
      "Ġachie": 2573,
      "ining": 2574,
      "Ġdistance": 2575,
      "Ġglobal": 2576,
      "Ġanim": 2577,
      "Ġfive": 2578,
      "Ġ21": 2579,
      "ceed": 2580,
      "Ġknowledge": 2581,
      "Ġspeed": 2582,
      "ĠII": 2583,
      "05": 2584,
      "acks": 2585,
      "Ġdrug": 2586,
      "ump": 2587,
      "orts": 2588,
      "Ġparticip": 2589,
      "oon": 2590,
      "ĠAg": 2591,
      "Ġrecomm": 2592,
      "Â·Â·Â·Â·": 2593,
      "Ġcreated": 2594,
      "Ġuses": 2595,
      "}_{": 2596,
      "gest": 2597,
      "Ġ22": 2598,
      "ivil": 2599,
      "ĠDep": 2600,
      "Ġmatter": 2601,
      "ordin": 2602,
      "ried": 2603,
      "Ġteac": 2604,
      "38": 2605,
      "Ġsection": 2606,
      "Ġhouse": 2607,
      "col": 2608,
      "Ġlo": 2609,
      "Ġexperience": 2610,
      "Ġhttp": 2611,
      "ĠDo": 2612,
      "Ġlines": 2613,
      "lor": 2614,
      "Ġsoft": 2615,
      "ĠNorth": 2616,
      "Ġnational": 2617,
      "Ġtheore": 2618,
      "Ġden": 2619,
      "Ġfactor": 2620,
      "78": 2621,
      "Ġtechnology": 2622,
      "astic": 2623,
      "OR": 2624,
      "Ġmach": 2625,
      "sum": 2626,
      "Ġvariable": 2627,
      "Ġsent": 2628,
      "Ġwave": 2629,
      "ming": 2630,
      "gebra": 2631,
      "Ġconsum": 2632,
      "ai": 2633,
      "Ġmonths": 2634,
      "Ġzero": 2635,
      "based": 2636,
      "}{\\": 2637,
      "Ġbit": 2638,
      "Ġwritten": 2639,
      "Ġcut": 2640,
      "ID": 2641,
      "Ġetc": 2642,
      "ils": 2643,
      "Ġox": 2644,
      "Ġpropos": 2645,
      "esc": 2646,
      "ĠBrit": 2647,
      "Ġindepend": 2648,
      "ĠJew": 2649,
      "Ġpublished": 2650,
      "iet": 2651,
      "Ġwrite": 2652,
      "ĠThen": 2653,
      "Ġdocument": 2654,
      "Ġsample": 2655,
      "ĠAmerica": 2656,
      "Ġlimit": 2657,
      "}^": 2658,
      "medi": 2659,
      "Ġproducts": 2660,
      "Ġwide": 2661,
      "64": 2662,
      "Ġast": 2663,
      "izing": 2664,
      "apter": 2665,
      "Ġcame": 2666,
      "ulations": 2667,
      "Ġresearchers": 2668,
      "ĠLet": 2669,
      "acy": 2670,
      "Pro": 2671,
      "mat": 2672,
      "When": 2673,
      "pri": 2674,
      "Ġfram": 2675,
      "olic": 2676,
      "Ġmom": 2677,
      "mathbb": 2678,
      "Ġheat": 2679,
      "lt": 2680,
      "abor": 2681,
      "Ġresources": 2682,
      "know": 2683,
      "ibrary": 2684,
      "ĠEd": 2685,
      "reme": 2686,
      "32": 2687,
      "Ġmole": 2688,
      "Ġrole": 2689,
      "Ġrat": 2690,
      "Ġspect": 2691,
      "Ġbar": 2692,
      "Ġsimply": 2693,
      "Ġgreater": 2694,
      "Ġmembers": 2695,
      "Ġprec": 2696,
      "ores": 2697,
      "Ġincreased": 2698,
      "Ġactivity": 2699,
      "IS": 2700,
      "Ġrecogn": 2701,
      "Ġnecessary": 2702,
      "Ġmeet": 2703,
      "Ġcreat": 2704,
      "lean": 2705,
      "Ġtalk": 2706,
      "Ġrecent": 2707,
      "Ġfamil": 2708,
      "On": 2709,
      "Ġnetwork": 2710,
      "Ġpay": 2711,
      "ĠGu": 2712,
      "lation": 2713,
      "augh": 2714,
      "Ġweek": 2715,
      "Ġerror": 2716,
      "ĠPr": 2717,
      "illed": 2718,
      "ĠEnglish": 2719,
      "Ġprobably": 2720,
      "Ġchemical": 2721,
      "Ġproduce": 2722,
      "Ġ2008": 2723,
      "Ġmultiple": 2724,
      "Ġfactors": 2725,
      "new": 2726,
      "Ġ2009": 2727,
      "NA": 2728,
      "light": 2729,
      "ĠOct": 2730,
      "Ġprobability": 2731,
      "Ġaccept": 2732,
      "ift": 2733,
      "--------": 2734,
      "Ġseems": 2735,
      "Ġquick": 2736,
      "ips": 2737,
      "Ġquality": 2738,
      "ections": 2739,
      "Ġclaim": 2740,
      "order": 2741,
      "go": 2742,
      ")=": 2743,
      "Ġbuilding": 2744,
      "ret": 2745,
      "Ġmedical": 2746,
      "65": 2747,
      "stitute": 2748,
      "ĠSch": 2749,
      "istance": 2750,
      "Ġversion": 2751,
      "ider": 2752,
      "Ġcity": 2753,
      "osis": 2754,
      "anced": 2755,
      ",\\": 2756,
      "Ġconsist": 2757,
      "Ġreduce": 2758,
      "AC": 2759,
      "arily": 2760,
      "hib": 2761,
      "tical": 2762,
      "Ġcat": 2763,
      "ounds": 2764,
      "ĠApr": 2765,
      "ĠSouth": 2766,
      "Ġcolor": 2767,
      "Ġstrateg": 2768,
      "Ġsearch": 2769,
      "enn": 2770,
      "Ġbehavior": 2771,
      "Ġwhite": 2772,
      "But": 2773,
      "Ġsix": 2774,
      "pose": 2775,
      "Ġdest": 2776,
      "inci": 2777,
      "ĠPhys": 2778,
      "ription": 2779,
      "Ġnature": 2780,
      "Ġreview": 2781,
      "hood": 2782,
      "fact": 2783,
      "Ġcontain": 2784,
      "ured": 2785,
      "amples": 2786,
      "ĠMod": 2787,
      "rated": 2788,
      "mb": 2789,
      "lex": 2790,
      "Ġaffect": 2791,
      "Ġbase": 2792,
      "uck": 2793,
      "Ġdecl": 2794,
      "Ġtable": 2795,
      "Ġsymptoms": 2796,
      "Ġmicro": 2797,
      "Ġdat": 2798,
      "37": 2799,
      "Ġarch": 2800,
      "Ġproperties": 2801,
      "Ġformula": 2802,
      "Ġperformance": 2803,
      "ĠPer": 2804,
      "Ġtaking": 2805,
      "Ġcommand": 2806,
      "Ġlive": 2807,
      "ĠAct": 2808,
      "Ġemploy": 2809,
      "ev": 2810,
      "44": 2811,
      "acc": 2812,
      "olar": 2813,
      "Ġchall": 2814,
      "ĠResearch": 2815,
      "elta": 2816,
      "Ġcontains": 2817,
      "Ġrelig": 2818,
      "Ġdetermine": 2819,
      "].": 2820,
      "amin": 2821,
      "Ġplants": 2822,
      "So": 2823,
      "ĠMore": 2824,
      "onal": 2825,
      "Ġ{\\": 2826,
      "erve": 2827,
      "Ġ74": 2828,
      "www": 2829,
      "ĠJournal": 2830,
      "ze": 2831,
      "ened": 2832,
      "Ġla": 2833,
      "ĠPre": 2834,
      "ĠHist": 2835,
      "Ġregard": 2836,
      "vey": 2837,
      "Ġeconomic": 2838,
      "Ġorigin": 2839,
      "Ġhol": 2840,
      "Ġjob": 2841,
      "cont": 2842,
      "ĠShe": 2843,
      "Ġclimate": 2844,
      "Ġ40": 2845,
      "eration": 2846,
      "199": 2847,
      "Ġthus": 2848,
      "Ġbusiness": 2849,
      "Ġpriv": 2850,
      "Ġregular": 2851,
      "ĠĠĠ": 2852,
      "dro": 2853,
      "Ġeasy": 2854,
      "Ġstop": 2855,
      "Ġunit": 2856,
      "Ġmarket": 2857,
      "Ġsquare": 2858,
      "Ġalgorithm": 2859,
      "Ġgives": 2860,
      "Ġuseful": 2861,
      "Ġaction": 2862,
      "EN": 2863,
      "Ġfeed": 2864,
      "Ġbasic": 2865,
      "Ġur": 2866,
      "enc": 2867,
      "Ġoil": 2868,
      "alpha": 2869,
      "Ġmor": 2870,
      "Ġinitial": 2871,
      "oly": 2872,
      "}(": 2873,
      "Ġonline": 2874,
      "iddle": 2875,
      "AL": 2876,
      "Ġhours": 2877,
      "Ġtook": 2878,
      "Ġmess": 2879,
      "Ġavoid": 2880,
      "see": 2881,
      "aching": 2882,
      "IC": 2883,
      "ĠDr": 2884,
      "Ġnumer": 2885,
      "oura": 2886,
      "pid": 2887,
      "Ġincreasing": 2888,
      "uth": 2889,
      "Ġthemselves": 2890,
      "Ġdoing": 2891,
      "Ġvariables": 2892,
      "Ġcolle": 2893,
      "Ġadded": 2894,
      "iding": 2895,
      "Ġlonger": 2896,
      "ED": 2897,
      "Ġeffective": 2898,
      "Ġfri": 2899,
      "times": 2900,
      "iven": 2901,
      "pper": 2902,
      "Ġrelationship": 2903,
      "Ġhistor": 2904,
      "sin": 2905,
      "ype": 2906,
      "atives": 2907,
      "ĠAust": 2908,
      "Ġslow": 2909,
      "Ġcross": 2910,
      "',": 2911,
      "Ġissue": 2912,
      "ĠPar": 2913,
      "Ġcommunic": 2914,
      "Ġresponse": 2915,
      "48": 2916,
      "Ġhor": 2917,
      "iction": 2918,
      "Ġcontent": 2919,
      "Ġmind": 2920,
      "Ġconduct": 2921,
      "Ġmaterials": 2922,
      "Ġgot": 2923,
      "IT": 2924,
      "Ġri": 2925,
      "Ġissues": 2926,
      "Ġquite": 2927,
      "Ġnegative": 2928,
      "ensive": 2929,
      "Ġwhose": 2930,
      "inite": 2931,
      "Ġstory": 2932,
      "Ġlarger": 2933,
      "sych": 2934,
      "Ġtarget": 2935,
      "Ġdeb": 2936,
      "Ġpolitical": 2937,
      "ched": 2938,
      "omial": 2939,
      "Ġmodern": 2940,
      "Ġut": 2941,
      "55": 2942,
      "Ġservices": 2943,
      "Ġir": 2944,
      "amm": 2945,
      "ĠPart": 2946,
      "'ve": 2947,
      "Ġ2007": 2948,
      "igma": 2949,
      "rate": 2950,
      "Ġ${\\": 2951,
      "Ġtraining": 2952,
      "Ġpractice": 2953,
      "ambda": 2954,
      "ecause": 2955,
      "Ġremov": 2956,
      "Ġdecre": 2957,
      "odes": 2958,
      "Ġdraw": 2959,
      "ĠAfter": 2960,
      "Ġunderstanding": 2961,
      "Ġprint": 2962,
      "cdot": 2963,
      "ĠÃ": 2964,
      "yth": 2965,
      "ĠFeb": 2966,
      "Ġbreak": 2967,
      "Ġever": 2968,
      "ney": 2969,
      "Ġcomes": 2970,
      "Ġcarbon": 2971,
      "Ġgenerally": 2972,
      "ĠSystem": 2973,
      "rie": 2974,
      "lo": 2975,
      "urb": 2976,
      "apan": 2977,
      "ging": 2978,
      "eter": 2979,
      "aged": 2980,
      "do": 2981,
      "Ġsal": 2982,
      "Ġliter": 2983,
      "Ġsubst": 2984,
      "Ġtakes": 2985,
      "Ġrefer": 2986,
      "Ġcorrespond": 2987,
      "aff": 2988,
      "Ġord": 2989,
      "Ġanimals": 2990,
      "Ġtravel": 2991,
      "Ġdemon": 2992,
      "Ġblock": 2993,
      "Ġprograms": 2994,
      "Ġ2013": 2995,
      "Ġprotect": 2996,
      "estern": 2997,
      "Ġliving": 2998,
      "Ġattempt": 2999,
      "ãĢ": 3000,
      "Ġrev": 3001,
      "Ġelectr": 3002,
      "Ġcontact": 3003,
      "Ġdepend": 3004,
      "Ġactivities": 3005,
      "Ġexerc": 3006,
      "-\\": 3007,
      "Ġmoney": 3008,
      "Ġdescribed": 3009,
      "cular": 3010,
      "Ġsometimes": 3011,
      "Ġsymbol": 3012,
      "igned": 3013,
      "Ġfit": 3014,
      "ĠMath": 3015,
      "Re": 3016,
      "Ġ28": 3017,
      "Ġearth": 3018,
      "Ġproperty": 3019,
      "ached": 3020,
      "ises": 3021,
      "Ġevents": 3022,
      "itle": 3023,
      "Ġens": 3024,
      "vere": 3025,
      "ronic": 3026,
      "ĠNot": 3027,
      "Ġgrad": 3028,
      "Ġincludes": 3029,
      "Ġdirection": 3030,
      "imately": 3031,
      "Ġpair": 3032,
      "Ġpie": 3033,
      "Ġbegan": 3034,
      "Ġbuilt": 3035,
      "Ġdirectly": 3036,
      "amed": 3037,
      "lands": 3038,
      "Ġexcept": 3039,
      "Ġstudent": 3040,
      "Ġgreen": 3041,
      "Ġservice": 3042,
      "Ġtherefore": 3043,
      "Ġhold": 3044,
      "Ġax": 3045,
      "ervation": 3046,
      "ĠWill": 3047,
      "theta": 3048,
      "Ġanaly": 3049,
      "Ġpp": 3050,
      "Ġreported": 3051,
      "Ġfish": 3052,
      "aches": 3053,
      "ension": 3054,
      "Ġmoment": 3055,
      "Ġskin": 3056,
      "ister": 3057,
      "Ġadj": 3058,
      "Ġdimens": 3059,
      "ĠSim": 3060,
      "Ġbr": 3061,
      "Ġrights": 3062,
      "urs": 3063,
      "01": 3064,
      "Ġadult": 3065,
      "rown": 3066,
      "minist": 3067,
      "Ġapplication": 3068,
      "Ġadditional": 3069,
      "li": 3070,
      "Ġinstall": 3071,
      "stract": 3072,
      "ĠHis": 3073,
      "ĠCenter": 3074,
      "rote": 3075,
      "Ġbelieve": 3076,
      "Ġscientists": 3077,
      "Ġincluded": 3078,
      "Ġuser": 3079,
      "ĠAm": 3080,
      "ington": 3081,
      "ĠJu": 3082,
      "Ġability": 3083,
      "Ġobjects": 3084,
      "Ġ26": 3085,
      "roup": 3086,
      "'ll": 3087,
      "Ġmaint": 3088,
      "Ġdoctor": 3089,
      "ector": 3090,
      "Ġemer": 3091,
      "Ġpict": 3092,
      "mu": 3093,
      "Ġinvestig": 3094,
      "ĠLa": 3095,
      "ĠNe": 3096,
      "haps": 3097,
      "ground": 3098,
      "load": 3099,
      "Ġ@": 3100,
      "Ġsem": 3101,
      "Ġsolutions": 3102,
      "abet": 3103,
      "76": 3104,
      "ĠDepartment": 3105,
      "Ġheav": 3106,
      "bor": 3107,
      "49": 3108,
      "aging": 3109,
      "resh": 3110,
      "Ġthird": 3111,
      "Ġelectric": 3112,
      "name": 3113,
      "log": 3114,
      "back": 3115,
      "ideo": 3116,
      "Ġconcent": 3117,
      "Ġcolum": 3118,
      "bo": 3119,
      "Ġaltern": 3120,
      "ino": 3121,
      "inks": 3122,
      "iff": 3123,
      "ST": 3124,
      "ctors": 3125,
      "Ġforms": 3126,
      "ricult": 3127,
      "Ġelse": 3128,
      "time": 3129,
      "Ġcaused": 3130,
      "edia": 3131,
      "Ġdesigned": 3132,
      "Ġproduced": 3133,
      "ĠHar": 3134,
      "rial": 3135,
      "abit": 3136,
      "Ġmeaning": 3137,
      "ops": 3138,
      "rought": 3139,
      "ederal": 3140,
      "uary": 3141,
      "fect": 3142,
      "ese": 3143,
      "Ġsun": 3144,
      "Ġprote": 3145,
      "ĠEm": 3146,
      "off": 3147,
      "ï¼Į": 3148,
      "Ġreading": 3149,
      "Ġinside": 3150,
      "hest": 3151,
      "ening": 3152,
      "Ġgame": 3153,
      "aling": 3154,
      "duc": 3155,
      "Ġcoun": 3156,
      "Ġsources": 3157,
      "Ġnut": 3158,
      "Ġlate": 3159,
      "ĠPress": 3160,
      "Ġfigure": 3161,
      "Ġproced": 3162,
      "ĠPe": 3163,
      "Ġlooking": 3164,
      "ĠCons": 3165,
      "Ġapplications": 3166,
      "Ġexpect": 3167,
      "Ġhyp": 3168,
      "ĠJapan": 3169,
      "Ġdefinition": 3170,
      "Ġdiagn": 3171,
      "Ġprinci": 3172,
      "ching": 3173,
      "Ġcompared": 3174,
      "isions": 3175,
      "ued": 3176,
      "umber": 3177,
      "Ġexpected": 3178,
      "alle": 3179,
      "Ġfeatures": 3180,
      "Ġrot": 3181,
      "hing": 3182,
      "Ġsequence": 3183,
      "rig": 3184,
      "AM": 3185,
      "Ġnuc": 3186,
      "Ġfinal": 3187,
      "cell": 3188,
      "ĠSchool": 3189,
      "Ġautom": 3190,
      "Ġfiles": 3191,
      "Ġconstruct": 3192,
      "Ġscale": 3193,
      ")$$": 3194,
      "And": 3195,
      "lement": 3196,
      "Ġoutside": 3197,
      "Ġprior": 3198,
      "ey": 3199,
      "79": 3200,
      "Ġmath": 3201,
      "Ġmemory": 3202,
      "çļ": 3203,
      "Ġassess": 3204,
      "Ġfire": 3205,
      "reng": 3206,
      "dom": 3207,
      "Ġbur": 3208,
      "ada": 3209,
      "actions": 3210,
      "Ġallows": 3211,
      "ĠMin": 3212,
      "ÂłÂłÂłÂł": 3213,
      "wo": 3214,
      "31": 3215,
      "Ġste": 3216,
      "igen": 3217,
      "Ġcou": 3218,
      "Ġtax": 3219,
      "Ġmiss": 3220,
      "Ġcompet": 3221,
      "Ġdeep": 3222,
      "ĠHere": 3223,
      "çļĦ": 3224,
      "itation": 3225,
      "Ġspread": 3226,
      "Ġsex": 3227,
      "Ġmap": 3228,
      "Ġinterpre": 3229,
      "Â°": 3230,
      "ĠAc": 3231,
      "Ġextreme": 3232,
      "Ġappropri": 3233,
      "estion": 3234,
      "Ġexamples": 3235,
      "ĠCO": 3236,
      "Ġcoordin": 3237,
      "ĠInstitute": 3238,
      "ometry": 3239,
      "uff": 3240,
      "ography": 3241,
      "Ġenvironmental": 3242,
      "ĠSince": 3243,
      "ĠPres": 3244,
      "rast": 3245,
      "ferences": 3246,
      "rees": 3247,
      "ien": 3248,
      "Ġproof": 3249,
      "bar": 3250,
      "Ġsurv": 3251,
      "Ġessential": 3252,
      "def": 3253,
      "Ġmaximum": 3254,
      "Ġtree": 3255,
      "ĠFirst": 3256,
      "ĠMathemat": 3257,
      "elling": 3258,
      "iency": 3259,
      "Ġcover": 3260,
      "Ġforest": 3261,
      "cles": 3262,
      "ccording": 3263,
      "Ġfollows": 3264,
      "gram": 3265,
      "ĠDav": 3266,
      "Ġsuff": 3267,
      "ĠIS": 3268,
      "Ġdegree": 3269,
      "ĠâĪ": 3270,
      "ously": 3271,
      "Ġmanagement": 3272,
      "ĠOther": 3273,
      "Ġcateg": 3274,
      "ls": 3275,
      "wor": 3276,
      "cient": 3277,
      "Ġload": 3278,
      "Ġtests": 3279,
      "Ġexpression": 3280,
      "Ġdisplay": 3281,
      "ners": 3282,
      "Ġobserved": 3283,
      "book": 3284,
      "Ġparameters": 3285,
      "raft": 3286,
      "ully": 3287,
      "Ġwrote": 3288,
      "77": 3289,
      "Ġalthough": 3290,
      "Ġpopular": 3291,
      "Ġacid": 3292,
      "Ġstress": 3293,
      "bre": 3294,
      "Ġeasily": 3295,
      "Ġvia": 3296,
      "adem": 3297,
      "{{": 3298,
      "cret": 3299,
      "66": 3300,
      "Ġtrying": 3301,
      ")^": 3302,
      "year": 3303,
      "Ġfarm": 3304,
      "Ġimages": 3305,
      "Ġcentral": 3306,
      "Ġpolicy": 3307,
      "ĠReg": 3308,
      "ĠComp": 3309,
      "Ġled": 3310,
      "Ġreference": 3311,
      "Ġparents": 3312,
      "ĠRet": 3313,
      "vention": 3314,
      "Ġitem": 3315,
      "ky": 3316,
      "leep": 3317,
      "Ġevalu": 3318,
      "Ġsolve": 3319,
      "rs": 3320,
      "Ġbasis": 3321,
      "Ġgetting": 3322,
      "rench": 3323,
      "ights": 3324,
      "isms": 3325,
      "Ġprice": 3326,
      "Ġapplied": 3327,
      "vant": 3328,
      "istry": 3329,
      "cean": 3330,
      "Ġ_": 3331,
      "Ġoption": 3332,
      "Ġthroughout": 3333,
      "Ġcauses": 3334,
      "Ġinvolved": 3335,
      "mathcal": 3336,
      "88": 3337,
      "Ġagree": 3338,
      "ilitary": 3339,
      "Ġcenter": 3340,
      "ĠInternational": 3341,
      "IV": 3342,
      "Ġcard": 3343,
      "ĠWhile": 3344,
      "mar": 3345,
      "aly": 3346,
      "Ġfeet": 3347,
      "mod": 3348,
      "ï¿½ï¿½": 3349,
      "DF": 3350,
      "Ġbal": 3351,
      "lier": 3352,
      "Ġflo": 3353,
      "fully": 3354,
      "Ġidentify": 3355,
      "Ġcamp": 3356,
      "Ġopportun": 3357,
      "Ġdemonstr": 3358,
      "with": 3359,
      "Ġfat": 3360,
      "ancy": 3361,
      "rim": 3362,
      "Ġscientific": 3363,
      "partial": 3364,
      "Ġparticularly": 3365,
      "Ġcapac": 3366,
      "Ġ60": 3367,
      "Ġviol": 3368,
      "che": 3369,
      "Ġrule": 3370,
      "ĠCor": 3371,
      "amma": 3372,
      "Ġ2005": 3373,
      "ustom": 3374,
      "ĠNow": 3375,
      "Ġsets": 3376,
      "Ġvariety": 3377,
      "ĠTrans": 3378,
      "Ġindividuals": 3379,
      "idth": 3380,
      "umb": 3381,
      "Ġwebs": 3382,
      "Ġrates": 3383,
      "Ġsites": 3384,
      "uration": 3385,
      "Ġop": 3386,
      "point": 3387,
      "Ġequival": 3388,
      "Ġsoftware": 3389,
      "mission": 3390,
      "46": 3391,
      "+\\": 3392,
      "Ġ29": 3393,
      "Ġfront": 3394,
      "ille": 3395,
      "Ġsomeone": 3396,
      "mosp": 3397,
      "Ġshare": 3398,
      "Ġ27": 3399,
      "ief": 3400,
      "Ġwild": 3401,
      "ĠFran": 3402,
      "Ġpoor": 3403,
      "Ġwriting": 3404,
      "Ġstreng": 3405,
      "ĠCount": 3406,
      "47": 3407,
      "RE": 3408,
      "Ġunique": 3409,
      "Con": 3410,
      "ulated": 3411,
      "Ġpersonal": 3412,
      "Ġmention": 3413,
      "ĠGl": 3414,
      "rapy": 3415,
      "::": 3416,
      "Ġindex": 3417,
      "Ġdynam": 3418,
      "zz": 3419,
      "Ġcommit": 3420,
      "Ġhydro": 3421,
      "ĠâĪĴ": 3422,
      "ptember": 3423,
      "Ġsea": 3424,
      "ĠServ": 3425,
      "Ġball": 3426,
      "ĠCalif": 3427,
      "Ġnames": 3428,
      "ĠFrom": 3429,
      "Ġrow": 3430,
      "Ġstring": 3431,
      "Te": 3432,
      "Ġq": 3433,
      "ĠMon": 3434,
      "ĠĠĠĠĠĠĠĠĠĠĠĠĠĠĠĠ": 3435,
      "term": 3436,
      "lambda": 3437,
      "ĠMarch": 3438,
      "Ġfrequency": 3439,
      "izes": 3440,
      "iques": 3441,
      "uk": 3442,
      "na": 3443,
      "Ġsil": 3444,
      "Ġschools": 3445,
      "Ġdeveloping": 3446,
      "ĠJuly": 3447,
      "aul": 3448,
      "Ġlabor": 3449,
      "ste": 3450,
      "Ġexec": 3451,
      "Ġvolume": 3452,
      "crete": 3453,
      "och": 3454,
      "Ġdensity": 3455,
      "osing": 3456,
      "Ġsmaller": 3457,
      "Ġfav": 3458,
      "Ġattack": 3459,
      "Ġcapt": 3460,
      "aily": 3461,
      "ulf": 3462,
      "ĠThus": 3463,
      "Ġanything": 3464,
      "Ġclean": 3465,
      "ades": 3466,
      "Ġroot": 3467,
      "bed": 3468,
      "Ġbox": 3469,
      "08": 3470,
      "Ġcompany": 3471,
      "Ġmovement": 3472,
      "Cl": 3473,
      "Ġimmedi": 3474,
      "nomial": 3475,
      "ĠOf": 3476,
      "Ġquantum": 3477,
      "Ġ69": 3478,
      "df": 3479,
      "ocks": 3480,
      "racy": 3481,
      "Ġdiag": 3482,
      "Ġwrong": 3483,
      "II": 3484,
      "Ġund": 3485,
      "He": 3486,
      "alse": 3487,
      "Ġ^": 3488,
      "Ġce": 3489,
      "ii": 3490,
      "Ġindustry": 3491,
      "Ġactive": 3492,
      "ĠSol": 3493,
      "Ġwall": 3494,
      "phi": 3495,
      "ĠRec": 3496,
      "ulate": 3497,
      "Ġupd": 3498,
      "ashington": 3499,
      "come": 3500,
      "Ġphase": 3501,
      "uit": 3502,
      "Ġtransform": 3503,
      "ĠBritish": 3504,
      "Ġfields": 3505,
      "AB": 3506,
      "Ġfast": 3507,
      "osure": 3508,
      "ĠSm": 3509,
      "Ġinternational": 3510,
      "ĠAustral": 3511,
      "ĠJune": 3512,
      "ufact": 3513,
      "yp": 3514,
      "raw": 3515,
      "Ġserious": 3516,
      "Ġcompar": 3517,
      "fty": 3518,
      "ĠMost": 3519,
      "head": 3520,
      "known": 3521,
      "Ġinteresting": 3522,
      "Ġexactly": 3523,
      "Ġwarm": 3524,
      "Ġshape": 3525,
      "ornia": 3526,
      "ĠChina": 3527,
      "ovember": 3528,
      "Ġreaction": 3529,
      "Ġfinite": 3530,
      "}}\\": 3531,
      "Ġsus": 3532,
      "Ġthous": 3533,
      "ĠMany": 3534,
      "Ġmotion": 3535,
      "Ġcontext": 3536,
      "Ġnote": 3537,
      "Ġtend": 3538,
      "Ġrout": 3539,
      "Ġbring": 3540,
      "Ġhom": 3541,
      "Ġangle": 3542,
      "By": 3543,
      "Qu": 3544,
      "Ġvisit": 3545,
      "Ġrequires": 3546,
      "Ġfem": 3547,
      "gn": 3548,
      "Ġstarted": 3549,
      "Ġstri": 3550,
      "59": 3551,
      "thern": 3552,
      "Ġevolution": 3553,
      "Ġtools": 3554,
      "07": 3555,
      "Ġsoil": 3556,
      "which": 3557,
      "Ġshall": 3558,
      "ĠApril": 3559,
      "ridge": 3560,
      "oring": 3561,
      "Ġcontinue": 3562,
      "ares": 3563,
      "cember": 3564,
      "array": 3565,
      "orph": 3566,
      "curity": 3567,
      "Ġprocesses": 3568,
      "ha": 3569,
      "Ġobtained": 3570,
      "inct": 3571,
      "One": 3572,
      "Ġremain": 3573,
      "isf": 3574,
      "Ġbroad": 3575,
      "ĠPost": 3576,
      "Ġlack": 3577,
      "Ġ%": 3578,
      "Ġvel": 3579,
      "Ġbecomes": 3580,
      "Ġinstance": 3581,
      "Ġsolar": 3582,
      "ĠAugust": 3583,
      "ET": 3584,
      "Ġface": 3585,
      "ilos": 3586,
      "inu": 3587,
      "Ġbott": 3588,
      "Ġnothing": 3589,
      "58": 3590,
      "68": 3591,
      "ony": 3592,
      "Ġmusic": 3593,
      "Ġbad": 3594,
      "rag": 3595,
      "more": 3596,
      "ĠKing": 3597,
      "Ġhyper": 3598,
      "ä»": 3599,
      "used": 3600,
      "Ġheld": 3601,
      "ĠVol": 3602,
      "________": 3603,
      "Let": 3604,
      "Ġlimited": 3605,
      "Ġmachine": 3606,
      "Com": 3607,
      "osition": 3608,
      "Ġsound": 3609,
      ",,": 3610,
      "Ġcivil": 3611,
      "eds": 3612,
      "Ġweb": 3613,
      "Ġindependent": 3614,
      "====": 3615,
      "69": 3616,
      "oe": 3617,
      "ĠAlso": 3618,
      "Ġsou": 3619,
      "Ġestablished": 3620,
      "02": 3621,
      "Ġminutes": 3622,
      "Ġappropriate": 3623,
      "Ġones": 3624,
      "Ġlargest": 3625,
      "word": 3626,
      "ying": 3627,
      "vert": 3628,
      "#####": 3629,
      "ĠUse": 3630,
      "encies": 3631,
      "Ġwent": 3632,
      "Ġ61": 3633,
      "Ġreve": 3634,
      "Ġofficial": 3635,
      "sub": 3636,
      "ests": 3637,
      "Ġhighly": 3638,
      "Ġprogress": 3639,
      "ĠMy": 3640,
      "uge": 3641,
      "Ġcopy": 3642,
      "Ġinstit": 3643,
      "Ġthreat": 3644,
      "Ġ2006": 3645,
      "Ġ?": 3646,
      "Ġratio": 3647,
      "Ġargument": 3648,
      "ĠCalifornia": 3649,
      "Ġcritical": 3650,
      "inally": 3651,
      "Ġbeginning": 3652,
      "infty": 3653,
      "Ġideas": 3654,
      "Ġbooks": 3655,
      "Ġattention": 3656,
      "Ġdecision": 3657,
      "hern": 3658,
      "Ġprop": 3659,
      "Ġsignal": 3660,
      "Ġasked": 3661,
      "Ġcoe": 3662,
      "Ġparameter": 3663,
      "09": 3664,
      "ĠEl": 3665,
      "Ġbirth": 3666,
      "Ġskills": 3667,
      "Ġprimary": 3668,
      "beta": 3669,
      "anger": 3670,
      "Ġmeasures": 3671,
      "04": 3672,
      "Ġalgebra": 3673,
      "Ġderiv": 3674,
      "Now": 3675,
      "Ġbab": 3676,
      "Ġplot": 3677,
      "oles": 3678,
      "Ġrules": 3679,
      "Ġsteps": 3680,
      "mitted": 3681,
      "Ġnation": 3682,
      "Ġdemand": 3683,
      "Ġdamage": 3684,
      "ĠWest": 3685,
      "Un": 3686,
      "Ġvacc": 3687,
      "irect": 3688,
      "UT": 3689,
      "Ġforces": 3690,
      "ĠDec": 3691,
      "Ġsociety": 3692,
      "^{-": 3693,
      "At": 3694,
      "Ġsoon": 3695,
      "Ġcollection": 3696,
      "Ġpoll": 3697,
      "ĠBar": 3698,
      "ocity": 3699,
      "Ġunits": 3700,
      "Ġvideo": 3701,
      "Ġheight": 3702,
      "hel": 3703,
      "Ġquickly": 3704,
      "Ġnight": 3705,
      "cil": 3706,
      "ĠFrench": 3707,
      "Ġweak": 3708,
      "ĠAdd": 3709,
      "Ġcool": 3710,
      "ĠAssoci": 3711,
      "erate": 3712,
      "ĠChar": 3713,
      "42": 3714,
      "Ġdiet": 3715,
      "rab": 3716,
      "rance": 3717,
      "eks": 3718,
      "Ġmix": 3719,
      "Ġmilitary": 3720,
      "abetes": 3721,
      "Ph": 3722,
      "Ġanimal": 3723,
      "ĠJanuary": 3724,
      "Ġcomponents": 3725,
      "43": 3726,
      "Ġtransport": 3727,
      "$$\\": 3728,
      "icle": 3729,
      "ana": 3730,
      "yond": 3731,
      "Ġmount": 3732,
      "Ġnearly": 3733,
      "ĠBi": 3734,
      "ĠYour": 3735,
      "Ġhealthy": 3736,
      "ĠWashington": 3737,
      "Ġencoura": 3738,
      "Ġdoi": 3739,
      "ĠAnt": 3740,
      "Ġsafe": 3741,
      "iers": 3742,
      "Ġgoal": 3743,
      "Ġstatement": 3744,
      "useum": 3745,
      "ags": 3746,
      "tm": 3747,
      "itch": 3748,
      "Ġunc": 3749,
      "Ġlocation": 3750,
      "Ġcompan": 3751,
      "EC": 3752,
      "}=": 3753,
      "ius": 3754,
      "asons": 3755,
      "ĠAlthough": 3756,
      "ĠSee": 3757,
      "irm": 3758,
      "Ġapply": 3759,
      "issions": 3760,
      "Ġreceived": 3761,
      "Ġsust": 3762,
      "Sh": 3763,
      "tes": 3764,
      "ĠMc": 3765,
      "Ġdivid": 3766,
      "ster": 3767,
      "Ġhost": 3768,
      "ĠGeneral": 3769,
      "Ġrepe": 3770,
      "Ġisn": 3771,
      "ĠHistory": 3772,
      "Ġsupply": 3773,
      "67": 3774,
      "Ġtesting": 3775,
      "otic": 3776,
      "Ġult": 3777,
      "nam": 3778,
      "Ġsimpl": 3779,
      "Ġleading": 3780,
      "Ġinj": 3781,
      "Ġexplain": 3782,
      "Ġtrees": 3783,
      "Ġprep": 3784,
      "Ġillust": 3785,
      "son": 3786,
      "Ġmiles": 3787,
      "ĠSur": 3788,
      "ĠEuropean": 3789,
      "Ġaspect": 3790,
      "Ġupper": 3791,
      "ĠClass": 3792,
      "Ġkids": 3793,
      "Ġjo": 3794,
      "\\\\": 3795,
      "erson": 3796,
      "oted": 3797,
      "abilities": 3798,
      "Ġgrowing": 3799,
      "ĠEduc": 3800,
      "Ġcharge": 3801,
      "ĠVal": 3802,
      "Ġprivate": 3803,
      "Ġ72": 3804,
      "Ġatmosp": 3805,
      "ĠDes": 3806,
      "Ġtransfer": 3807,
      "Ġmother": 3808,
      "ĠTechn": 3809,
      "Is": 3810,
      "rum": 3811,
      "Ġoperations": 3812,
      "Ġbacter": 3813,
      "Ġeth": 3814,
      "Ġchoice": 3815,
      "Ġcurrently": 3816,
      "Ġdidn": 3817,
      "rh": 3818,
      "arge": 3819,
      "PA": 3820,
      "Ġgoes": 3821,
      "Ġmid": 3822,
      "Ġsecurity": 3823,
      "Ġhund": 3824,
      "Ġlat": 3825,
      "MS": 3826,
      "ĠSeptember": 3827,
      "Ġbehind": 3828,
      "Ġnorm": 3829,
      "can": 3830,
      "Ġfamilies": 3831,
      "OS": 3832,
      "Ġrecently": 3833,
      "br": 3834,
      "Ġchoose": 3835,
      "Ġappears": 3836,
      "ĠâĢ¢": 3837,
      "irit": 3838,
      "Ġexperiment": 3839,
      "Ġrare": 3840,
      "Ġpolynomial": 3841,
      "Ġdetails": 3842,
      "Ġlives": 3843,
      "03": 3844,
      "ML": 3845,
      "ĠâĢ¦": 3846,
      "hesis": 3847,
      "Ġ~": 3848,
      "ĠAre": 3849,
      "Ġearlier": 3850,
      "Ġradiation": 3851,
      ".;": 3852,
      "ĠWilliam": 3853,
      "Ġremains": 3854,
      "Ġmoving": 3855,
      "Ġtown": 3856,
      "ĠSpec": 3857,
      "Ġselect": 3858,
      "Ġnorth": 3859,
      "Ġsleep": 3860,
      "Ġfixed": 3861,
      "change": 3862,
      "Ġfru": 3863,
      "Ġmanufact": 3864,
      "PS": 3865,
      "ga": 3866,
      "Ġarray": 3867,
      "Ġwebsite": 3868,
      "Ġeat": 3869,
      "56": 3870,
      "ternal": 3871,
      "htt": 3872,
      "Ġextra": 3873,
      "Ġsituation": 3874,
      "Ġharm": 3875,
      "izations": 3876,
      "Ġdate": 3877,
      "ellow": 3878,
      "Ġcos": 3879,
      "ĠSer": 3880,
      "Ġfoot": 3881,
      "41": 3882,
      "Ġachieve": 3883,
      "ĠNovember": 3884,
      "Ġ;": 3885,
      "Ġcalculate": 3886,
      "Ġcontroll": 3887,
      "attle": 3888,
      "ĠSub": 3889,
      "ender": 3890,
      "Ġcit": 3891,
      "Ġcompletely": 3892,
      "Ġpsych": 3893,
      "ãĢĤ": 3894,
      "Ġdefine": 3895,
      "Ġcomment": 3896,
      "Ġice": 3897,
      "Ġoccurs": 3898,
      "Ġrepl": 3899,
      "ube": 3900,
      "Ġdevice": 3901,
      "Ġneigh": 3902,
      "Ġroad": 3903,
      "olute": 3904,
      "Ġrunning": 3905,
      "Ġcorresponding": 3906,
      "Ġtechniques": 3907,
      "57": 3908,
      "ĠCur": 3909,
      "Ġeverything": 3910,
      "sect": 3911,
      "Ġadapt": 3912,
      "Ġvirus": 3913,
      "Ġdifferences": 3914,
      "OT": 3915,
      "Ġhot": 3916,
      "rieved": 3917,
      "Ġsamples": 3918,
      "Ġfollowed": 3919,
      "Ab": 3920,
      "ĠDecember": 3921,
      "}_": 3922,
      "ĠEqu": 3923,
      "Ġdouble": 3924,
      "Ġep": 3925,
      "otes": 3926,
      "Ġincreases": 3927,
      "Ġdeal": 3928,
      "06": 3929,
      "Ġ${": 3930,
      "Ġpan": 3931,
      "ĠRuss": 3932,
      "Ġformat": 3933,
      "ama": 3934,
      "Ġinstr": 3935,
      "ĠFind": 3936,
      "Ġactual": 3937,
      "Ġexercise": 3938,
      "Ġsold": 3939,
      "celer": 3940,
      "Ġrain": 3941,
      "Ġwood": 3942,
      "Ġoptim": 3943,
      "Ġpresented": 3944,
      "Ġexc": 3945,
      "active": 3946,
      "Ġplaces": 3947,
      "Ġformed": 3948,
      "Ġrapid": 3949,
      "ilon": 3950,
      "Ġreduced": 3951,
      "Ġlost": 3952,
      "Ġwalk": 3953,
      "^{\\": 3954,
      "Ġlif": 3955,
      "Ġ73": 3956,
      "apers": 3957,
      "ĠIndian": 3958,
      "Ġcollect": 3959,
      "class": 3960,
      "reek": 3961,
      "orthern": 3962,
      "Ġcop": 3963,
      "ĠInter": 3964,
      "ĠIndia": 3965,
      "ĠCong": 3966,
      "Ġcam": 3967,
      "Ġplease": 3968,
      "Ġcarry": 3969,
      "Ġweeks": 3970,
      "Ġstructures": 3971,
      "Ġsevere": 3972,
      "ĠComput": 3973,
      "Ġsn": 3974,
      "Ġtheorem": 3975,
      "Ġdark": 3976,
      "Ġconstruction": 3977,
      "})": 3978,
      "gar": 3979,
      "Ġbenefits": 3980,
      "works": 3981,
      "Ġallowed": 3982,
      "Ġcosts": 3983,
      "Ġregions": 3984,
      "Ar": 3985,
      "Ġrob": 3986,
      "ĠâĨ": 3987,
      "Ġfeature": 3988,
      "Ġsatisf": 3989,
      "ĠOctober": 3990,
      "allel": 3991,
      "ams": 3992,
      "Ġnews": 3993,
      "water": 3994,
      "que": 3995,
      "ait": 3996,
      "Ġcustom": 3997,
      "Ġdefault": 3998,
      "Ġtraditional": 3999,
      "Ġperfect": 4000,
      "Ġprove": 4001,
      "ĠDef": 4002,
      "Ġarri": 4003,
      "ingu": 4004,
      "Ġmill": 4005,
      "uman": 4006,
      "Ġfun": 4007,
      "ancial": 4008,
      "ica": 4009,
      "Ġsmo": 4010,
      "Ġproposed": 4011,
      "Ġusers": 4012,
      "Ġsafety": 4013,
      "ĠÏ": 4014,
      "Ġrelatively": 4015,
      "Ġfuel": 4016,
      "cast": 4017,
      "ĠSociety": 4018,
      "overy": 4019,
      "Ġlocated": 4020,
      "CC": 4021,
      "oses": 4022,
      "hens": 4023,
      "Ġadop": 4024,
      "Ġpurpose": 4025,
      "Ġmut": 4026,
      "Ġvalid": 4027,
      "Ġefficient": 4028,
      "atur": 4029,
      "Ġseason": 4030,
      "Ġsynt": 4031,
      "Ġ2000": 4032,
      "Ġcoast": 4033,
      "Ġtiss": 4034,
      "Ġroom": 4035,
      "Ġscreen": 4036,
      "Ġculture": 4037,
      "Ġadminist": 4038,
      "Ġ70": 4039,
      "Ġstarting": 4040,
      "ford": 4041,
      "room": 4042,
      "raint": 4043,
      "la": 4044,
      "Ġelectron": 4045,
      "ĠOur": 4046,
      "ĠWind": 4047,
      "iar": 4048,
      "Ġwon": 4049,
      "Ġhar": 4050,
      "Ġresid": 4051,
      "Ġsort": 4052,
      "Ġgrav": 4053,
      "Ġdegrees": 4054,
      "Ġreach": 4055,
      "iter": 4056,
      "oud": 4057,
      "Ġhumans": 4058,
      "ĠRel": 4059,
      "Ġimag": 4060,
      "Ġadvant": 4061,
      "Ġtrack": 4062,
      "arian": 4063,
      "comp": 4064,
      "Ġthinking": 4065,
      "edu": 4066,
      "ĠSupp": 4067,
      "ken": 4068,
      "Ġmiddle": 4069,
      "imin": 4070,
      "ĠCommun": 4071,
      "urg": 4072,
      "ĠRiver": 4073,
      "ĠUsing": 4074,
      "Ġdog": 4075,
      "Ġoperation": 4076,
      "onds": 4077,
      "Ġhimself": 4078,
      "ocal": 4079,
      "Ġrecommend": 4080,
      "Ġhabit": 4081,
      "Ġinfluence": 4082,
      "Ġsett": 4083,
      "Ġinteger": 4084,
      "ĠGerman": 4085,
      "Ġlove": 4086,
      "Ġsaw": 4087,
      "Ġcapital": 4088,
      "Ġaware": 4089,
      "Ġtherm": 4090,
      "print": 4091,
      "oes": 4092,
      "su": 4093,
      "lin": 4094,
      "Ġtypically": 4095,
      "enge": 4096,
      "54": 4097,
      "no": 4098,
      "Ġfoods": 4099,
      "Ġsouth": 4100,
      "=\"": 4101,
      "omy": 4102,
      "Ġchanged": 4103,
      "men": 4104,
      "inger": 4105,
      "ĠArch": 4106,
      "Ġschem": 4107,
      "ĠPresident": 4108,
      "Ġensure": 4109,
      "era": 4110,
      "ĠÂ»": 4111,
      "nov": 4112,
      "Ġvelocity": 4113,
      "Ġchalleng": 4114,
      "itect": 4115,
      "ibly": 4116,
      "pite": 4117,
      "Ġslight": 4118,
      "äº": 4119,
      "Se": 4120,
      "Ġcurve": 4121,
      "Ġcry": 4122,
      "Ġbeyond": 4123,
      "ometric": 4124,
      "Ġinfection": 4125,
      "pir": 4126,
      "iform": 4127,
      "Ġperhaps": 4128,
      "rier": 4129,
      "ĠWeb": 4130,
      "89": 4131,
      "Ġspeak": 4132,
      "Ġparticles": 4133,
      "Ġtold": 4134,
      "Ġaim": 4135,
      "Ġfair": 4136,
      "ĠBecause": 4137,
      "Ġfib": 4138,
      "Ġmis": 4139,
      "Ġphysics": 4140,
      "odies": 4141,
      "ygen": 4142,
      "Ġnamed": 4143,
      "Ġgradu": 4144,
      "Ã¡": 4145,
      "HE": 4146,
      "Ġpatient": 4147,
      "Ġhelps": 4148,
      "rew": 4149,
      "inical": 4150,
      "hors": 4151,
      "ĠChristian": 4152,
      "ĠInst": 4153,
      "ĠAmericans": 4154,
      "Ġestablish": 4155,
      "ros": 4156,
      "ruary": 4157,
      "ĠRev": 4158,
      "Ġfinding": 4159,
      "Ġmeasured": 4160,
      "oper": 4161,
      "clus": 4162,
      "gl": 4163,
      "ION": 4164,
      "range": 4165,
      "ĠSw": 4166,
      "Ġcontinuous": 4167,
      "Ġatom": 4168,
      "Ġveget": 4169,
      "CO": 4170,
      "ĠEach": 4171,
      "yd": 4172,
      "rect": 4173,
      "eps": 4174,
      "Ġoffer": 4175,
      "Ġclasses": 4176,
      "box": 4177,
      "Ġrock": 4178,
      "Ġestimated": 4179,
      "Ġequivalent": 4180,
      "Ġbrought": 4181,
      "Ġconstit": 4182,
      "Ġviews": 4183,
      "Zbl": 4184,
      "ĠHer": 4185,
      "Ġshowed": 4186,
      "sigma": 4187,
      "Ġcommunities": 4188,
      "Ġseparate": 4189,
      "ĠChurch": 4190,
      "estic": 4191,
      "Ġexists": 4192,
      "ĠHigh": 4193,
      "Ġtrade": 4194,
      "Ġstar": 4195,
      "Ġtowards": 4196,
      "Ġcred": 4197,
      "Ġvisual": 4198,
      "Ġlaws": 4199,
      "ser": 4200,
      "ĠMark": 4201,
      "Ġresulting": 4202,
      "51": 4203,
      "ĠDavid": 4204,
      "Ġteachers": 4205,
      "ĠAfrican": 4206,
      "ĠPol": 4207,
      "aled": 4208,
      "anish": 4209,
      "fl": 4210,
      "Ġconsequ": 4211,
      "exp": 4212,
      "ĠChild": 4213,
      "Ġplaced": 4214,
      "ogle": 4215,
      "Ġeconomy": 4216,
      "Ġagricult": 4217,
      "Ġveh": 4218,
      "ĠAfrica": 4219,
      "rors": 4220,
      "Ġformer": 4221,
      "Ġprojects": 4222,
      "53": 4223,
      "erved": 4224,
      "orial": 4225,
      "Ġefforts": 4226,
      "Ġmedia": 4227,
      "Ġleaders": 4228,
      "ĠMus": 4229,
      "Ġrespectively": 4230,
      "Ġmember": 4231,
      "Ġperformed": 4232,
      "ĠProgram": 4233,
      "Ġcircle": 4234,
      "Ġdetermined": 4235,
      "life": 4236,
      "uild": 4237,
      "vest": 4238,
      ":\\": 4239,
      "Ġexisting": 4240,
      "Ġinfinite": 4241,
      "eff": 4242,
      "Ġgenerated": 4243,
      "oma": 4244,
      "0000": 4245,
      "Ġdaily": 4246,
      "Ġaccom": 4247,
      "Ġoccup": 4248,
      "Ġpret": 4249,
      "Ġenter": 4250,
      "unch": 4251,
      "const": 4252,
      "Ġdry": 4253,
      "ĠBo": 4254,
      "ĠDi": 4255,
      "Ġestimate": 4256,
      "ico": 4257,
      "iation": 4258,
      "Ġappe": 4259,
      "Ġlayer": 4260,
      "ĠNet": 4261,
      "Ġfully": 4262,
      "Ġborn": 4263,
      "Ġson": 4264,
      "DA": 4265,
      "Ġspaces": 4266,
      "hold": 4267,
      "ologies": 4268,
      "Here": 4269,
      "Ġincor": 4270,
      "Ġstage": 4271,
      "Ġworkers": 4272,
      "Ġreligious": 4273,
      "ãģ": 4274,
      "Ġreceive": 4275,
      "Ġhypot": 4276,
      "With": 4277,
      "Ġaccur": 4278,
      "ĠRetrieved": 4279,
      "Ġbul": 4280,
      "icit": 4281,
      "elt": 4282,
      "Ġrelation": 4283,
      "Ġalone": 4284,
      "Ġolder": 4285,
      "ĠNote": 4286,
      "stitution": 4287,
      "Ġcomponent": 4288,
      "atically": 4289,
      "Ġanti": 4290,
      "Ġaud": 4291,
      "Ġidentified": 4292,
      "wide": 4293,
      "Ġobtain": 4294,
      "Ġeye": 4295,
      "omin": 4296,
      "ratic": 4297,
      "ĠGovern": 4298,
      "Ġreflect": 4299,
      "ĠStat": 4300,
      "iverse": 4301,
      "omb": 4302,
      "Ġdead": 4303,
      "}$.": 4304,
      "itable": 4305,
      "Ġbran": 4306,
      "Ġcombination": 4307,
      "Ġmagnetic": 4308,
      "Ġattrib": 4309,
      "Ġten": 4310,
      "Ġfundam": 4311,
      "Ġpicture": 4312,
      "Ġcontaining": 4313,
      "Ġvirt": 4314,
      "Ġminimum": 4315,
      "Ġ75": 4316,
      "Ġspl": 4317,
      "nes": 4318,
      "olds": 4319,
      "cript": 4320,
      "rant": 4321,
      "Ġ2004": 4322,
      "Ġanswers": 4323,
      "Note": 4324,
      "Ġtoward": 4325,
      "Ġoverall": 4326,
      "ĠColle": 4327,
      "ĠAut": 4328,
      "Ġhoriz": 4329,
      "\")": 4330,
      "Ġstay": 4331,
      "ĠLear": 4332,
      "Ġpul": 4333,
      "rite": 4334,
      "Ġ##": 4335,
      "Ġlooks": 4336,
      "ondon": 4337,
      "ĠDevelop": 4338,
      "63": 4339,
      "anation": 4340,
      "ĠCanada": 4341,
      "itis": 4342,
      "Ġign": 4343,
      "Ġsurvey": 4344,
      "matrix": 4345,
      "Ġsummer": 4346,
      "AP": 4347,
      "Ġcolumn": 4348,
      "Ġworked": 4349,
      "Ġpresence": 4350,
      "Ġdevices": 4351,
      "Ġbottom": 4352,
      "aid": 4353,
      "Ġoptions": 4354,
      "Ġplane": 4355,
      "gs": 4356,
      "ospital": 4357,
      "Ġsides": 4358,
      "alysis": 4359,
      "BN": 4360,
      "Ġdescribe": 4361,
      "EE": 4362,
      "ban": 4363,
      "Ġjoint": 4364,
      "ogen": 4365,
      "Ġsurround": 4366,
      "Ġfather": 4367,
      "ĠWhy": 4368,
      "clusion": 4369,
      "Ġfederal": 4370,
      "Ġdro": 4371,
      "Ġvolt": 4372,
      "Ġphen": 4373,
      "imensional": 4374,
      "onic": 4375,
      "ĠMich": 4376,
      "iences": 4377,
      "Ġmode": 4378,
      "Ġgenetic": 4379,
      "Ġdiscussion": 4380,
      "ĠTherefore": 4381,
      "Ġconnect": 4382,
      "Ġplanet": 4383,
      "Ġwond": 4384,
      "Ġimpl": 4385,
      "Ġmessage": 4386,
      "that": 4387,
      "space": 4388,
      "Ġmathematics": 4389,
      "Ġpassed": 4390,
      "Ġbillion": 4391,
      "US": 4392,
      "Ġhope": 4393,
      "ĠVir": 4394,
      "ought": 4395,
      "Ġcompanies": 4396,
      "Ġconnected": 4397,
      "align": 4398,
      "52": 4399,
      "Ġgave": 4400,
      "Ġstra": 4401,
      "Ġcapacity": 4402,
      "Ġcand": 4403,
      "Ġintegral": 4404,
      "inese": 4405,
      "ession": 4406,
      "Post": 4407,
      "Ġdied": 4408,
      "Ġreplace": 4409,
      "Ġintroduced": 4410,
      "ilosoph": 4411,
      "Ġsufficient": 4412,
      "Ġeffort": 4413,
      "All": 4414,
      "$$.": 4415,
      "ython": 4416,
      "osite": 4417,
      "down": 4418,
      "omas": 4419,
      "Ġdetect": 4420,
      "Ġclosed": 4421,
      "Ġdatab": 4422,
      "Ġtask": 4423,
      "orders": 4424,
      "Ġlibrary": 4425,
      "ĠGreat": 4426,
      "ij": 4427,
      "ĠData": 4428,
      "Ġpages": 4429,
      "ĠLaw": 4430,
      "king": 4431,
      "Ġinform": 4432,
      "LE": 4433,
      "ham": 4434,
      "Ġsetting": 4435,
      "Ġimportance": 4436,
      "Ġobvious": 4437,
      "Ġdrugs": 4438,
      "Ġfraction": 4439,
      "ĠFree": 4440,
      "ĠProf": 4441,
      "Ġexpand": 4442,
      "ipment": 4443,
      "Some": 4444,
      "ĠPhil": 4445,
      "rest": 4446,
      "These": 4447,
      "Ġjud": 4448,
      "ĠPat": 4449,
      "Ġalternative": 4450,
      "Ġhighest": 4451,
      "Ġmathematical": 4452,
      "ĠJust": 4453,
      "Ġpregn": 4454,
      "Ġmonitor": 4455,
      "Ġstrength": 4456,
      "ĠCoun": 4457,
      "Ġinternal": 4458,
      "Ġstream": 4459,
      "Ġstyle": 4460,
      "sec": 4461,
      "Ġprotein": 4462,
      "Ġchann": 4463,
      "Ġdiabetes": 4464,
      "73": 4465,
      "edom": 4466,
      "Ġdiseases": 4467,
      "htm": 4468,
      "rael": 4469,
      "Ġstatus": 4470,
      "add": 4471,
      "Ġpow": 4472,
      "ĠEven": 4473,
      "Ġproport": 4474,
      "ĠOb": 4475,
      "Ġprocedure": 4476,
      "rief": 4477,
      "ĠEast": 4478,
      "Ġpick": 4479,
      "Ġlib": 4480,
      "DE": 4481,
      "Ġrise": 4482,
      "Res": 4483,
      "Ġtrig": 4484,
      "ĠTest": 4485,
      "key": 4486,
      "pling": 4487,
      "ĠCour": 4488,
      "Ġhands": 4489,
      "Ġdrink": 4490,
      "Ġacceler": 4491,
      "}}$": 4492,
      "Ġauthors": 4493,
      "illing": 4494,
      "RO": 4495,
      "Ġedge": 4496,
      "86": 4497,
      "Ġsustain": 4498,
      "ava": 4499,
      "Ġexposure": 4500,
      "Ġrespond": 4501,
      "ĠPark": 4502,
      "Ġcomplic": 4503,
      "what": 4504,
      "Ġletter": 4505,
      "pped": 4506,
      "Ġ31": 4507,
      "Ġconv": 4508,
      "ĠMex": 4509,
      "Ġacqu": 4510,
      "Ġfinancial": 4511,
      "Ġabsolute": 4512,
      "Ġleave": 4513,
      "ĠUnion": 4514,
      "Ġapproximately": 4515,
      "Ġband": 4516,
      "Ġforward": 4517,
      "Ġassume": 4518,
      "Ġincome": 4519,
      "ASA": 4520,
      "Ġdiscovered": 4521,
      "ĠPM": 4522,
      "Ġmig": 4523,
      "Ġvit": 4524,
      "Ġgal": 4525,
      "gery": 4526,
      "Ġpackage": 4527,
      "itz": 4528,
      "ĠAssociation": 4529,
      "Ġ90": 4530,
      "ĠEducation": 4531,
      "Ġabsor": 4532,
      "ses": 4533,
      "mark": 4534,
      "Ġclust": 4535,
      "state": 4536,
      "ifically": 4537,
      "iable": 4538,
      "Ġreasons": 4539,
      ">>": 4540,
      "iat": 4541,
      "Ġcontinued": 4542,
      "resents": 4543,
      "lam": 4544,
      "ocol": 4545,
      "ifying": 4546,
      "Ġadults": 4547,
      "ech": 4548,
      "ĠUN": 4549,
      "Ġblue": 4550,
      "rick": 4551,
      "ĠChe": 4552,
      "Ġeasier": 4553,
      "aught": 4554,
      "New": 4555,
      "Ġliqu": 4556,
      "Ġsignificantly": 4557,
      "ipal": 4558,
      "ĠCounty": 4559,
      "from": 4560,
      "ĠCity": 4561,
      "SS": 4562,
      "++": 4563,
      "ĠEngland": 4564,
      "orge": 4565,
      "joy": 4566,
      "Ġchance": 4567,
      "ographic": 4568,
      "Ġgets": 4569,
      "ĠPublic": 4570,
      "Ġexpon": 4571,
      "Ġcoming": 4572,
      "Ġbehavi": 4573,
      "Ġworth": 4574,
      "ilk": 4575,
      "ager": 4576,
      "dfrac": 4577,
      "ferent": 4578,
      "iew": 4579,
      "abel": 4580,
      "Ġtried": 4581,
      "87": 4582,
      "py": 4583,
      "Ġexistence": 4584,
      "Ġenh": 4585,
      "Ġgeneration": 4586,
      "Ġfight": 4587,
      "Ġpen": 4588,
      "ĠRead": 4589,
      "Ġbirds": 4590,
      "ĠMedic": 4591,
      "roy": 4592,
      "Ġsurpr": 4593,
      "Ġsymmet": 4594,
      "Ġlabel": 4595,
      "oming": 4596,
      "Ġ->": 4597,
      "Ġcold": 4598,
      "bi": 4599,
      "aters": 4600,
      "Ġclick": 4601,
      "Ġconfig": 4602,
      "Ġsuggests": 4603,
      "Ġeight": 4604,
      "Ġnuclear": 4605,
      "osen": 4606,
      "Ġcreating": 4607,
      "gence": 4608,
      "Ġneut": 4609,
      "ĠFebruary": 4610,
      "85": 4611,
      "value": 4612,
      "ĠJes": 4613,
      "ollow": 4614,
      "Ġvary": 4615,
      "linear": 4616,
      "Ġancient": 4617,
      "Ġ2003": 4618,
      "Ġround": 4619,
      "Ġaffected": 4620,
      "Ġbelief": 4621,
      "Ġinterpret": 4622,
      "Ġtopic": 4623,
      "uries": 4624,
      "length": 4625,
      "Ġcommerc": 4626,
      "Ġmoved": 4627,
      "uzz": 4628,
      "aint": 4629,
      "Ġbeg": 4630,
      "Ġweather": 4631,
      "That": 4632,
      "Ġgene": 4633,
      "ĠCalcul": 4634,
      "Ġdepends": 4635,
      "Ġpatterns": 4636,
      "Ġcommonly": 4637,
      "Ġmag": 4638,
      "rade": 4639,
      "Ġprotection": 4640,
      "ĠJul": 4641,
      "Ġseg": 4642,
      "ĠOff": 4643,
      "Ġremember": 4644,
      "atin": 4645,
      "ki": 4646,
      "ĠDay": 4647,
      "Ġoxygen": 4648,
      "Ġcharacteristics": 4649,
      "ĠJewish": 4650,
      "Ġhous": 4651,
      "Ġ80": 4652,
      "ĠEnergy": 4653,
      "Ġcm": 4654,
      "Ġfa": 4655,
      "(\"": 4656,
      "Ġresistance": 4657,
      "Ġproviding": 4658,
      "$$,": 4659,
      "Ġsin": 4660,
      "rightarrow": 4661,
      "ĠFl": 4662,
      "Ġparticle": 4663,
      "ameter": 4664,
      "pan": 4665,
      "ĠGreen": 4666,
      "Ġclearly": 4667,
      "ios": 4668,
      "Ġfine": 4669,
      "ĠElect": 4670,
      "tee": 4671,
      "Ġdifferential": 4672,
      "Ġobservations": 4673,
      "62": 4674,
      "Ġnor": 4675,
      "Ġstandards": 4676,
      "Ġstraight": 4677,
      "ĠBay": 4678,
      "Ġfriends": 4679,
      "Ġdu": 4680,
      "Ġrepresents": 4681,
      "72": 4682,
      "Ġ$(": 4683,
      "Ġsyn": 4684,
      "Ġexhib": 4685,
      "Ġtruth": 4686,
      "Ġhttps": 4687,
      "Ġpiece": 4688,
      "net": 4689,
      "Ġresponsible": 4690,
      "Ġotherwise": 4691,
      "Ġanyone": 4692,
      "Ġparallel": 4693,
      "ĠAN": 4694,
      "coh": 4695,
      "Ġreduction": 4696,
      "Ġresource": 4697,
      "Ġ64": 4698,
      "ĠAv": 4699,
      "ĠCongress": 4700,
      "71": 4701,
      "Ġdanger": 4702,
      "acters": 4703,
      "Ġdistinct": 4704,
      "Ġtim": 4705,
      "Ġcounter": 4706,
      "ander": 4707,
      "Ġsuccessful": 4708,
      "ĠÂ·": 4709,
      "level": 4710,
      "ĠHel": 4711,
      "apping": 4712,
      "ĠDNA": 4713,
      "Ġnoise": 4714,
      "SE": 4715,
      "Ġsubs": 4716,
      "idel": 4717,
      "ĠCath": 4718,
      "Ġcontrast": 4719,
      "Ġdomain": 4720,
      "gy": 4721,
      "ĠSan": 4722,
      "ĠEnvironment": 4723,
      "ĠProject": 4724,
      "ĠChinese": 4725,
      "ĠFound": 4726,
      "ĠPhysics": 4727,
      "Ġboundary": 4728,
      "iment": 4729,
      "ĠLondon": 4730,
      "Ġtechnique": 4731,
      "Ġcommunication": 4732,
      "ÃŃ": 4733,
      "ean": 4734,
      "ĠJews": 4735,
      "Ġunivers": 4736,
      "Ġtele": 4737,
      "Ġsupported": 4738,
      "ĠSun": 4739,
      "ĠIsrael": 4740,
      "Ġradio": 4741,
      "dx": 4742,
      "ĠRober": 4743,
      "Ġinterested": 4744,
      "Ġmentioned": 4745,
      "Ġconvers": 4746,
      "ĠFig": 4747,
      "Ġgenerate": 4748,
      "Ġimmediately": 4749,
      "ael": 4750,
      "enty": 4751,
      "74": 4752,
      "position": 4753,
      "olved": 4754,
      "Ġnotes": 4755,
      "61": 4756,
      "roduction": 4757,
      "Ġarm": 4758,
      "iny": 4759,
      "$-": 4760,
      "bert": 4761,
      "ĠMathematics": 4762,
      "Ġpurch": 4763,
      "Ġefficiency": 4764,
      "win": 4765,
      "Ġequipment": 4766,
      "Ġbackground": 4767,
      "ĠAccording": 4768,
      "Ġhon": 4769,
      "ĠInternet": 4770,
      "Ġspring": 4771,
      "Ġtransl": 4772,
      "phas": 4773,
      "Ġremoved": 4774,
      "Ġmetal": 4775,
      "Ġremove": 4776,
      "Ġrelease": 4777,
      "Ġ45": 4778,
      "well": 4779,
      "Ġ2020": 4780,
      "ĠStand": 4781,
      "LL": 4782,
      "lies": 4783,
      "ĠCollege": 4784,
      "Ġarchitect": 4785,
      "alled": 4786,
      "Ġtum": 4787,
      "Ġrecords": 4788,
      "}}{": 4789,
      "vec": 4790,
      "Ġegg": 4791,
      "Ġreports": 4792,
      "Ġcycle": 4793,
      "flow": 4794,
      "oration": 4795,
      "Ġwin": 4796,
      "oday": 4797,
      "ĠMor": 4798,
      "Ġdoub": 4799,
      "No": 4800,
      "ĠDet": 4801,
      "Ġ2017": 4802,
      "Ġcitiz": 4803,
      "Ġtreated": 4804,
      "Im": 4805,
      "Ġdrive": 4806,
      "ework": 4807,
      "Ġcir": 4808,
      "Ġteaching": 4809,
      "_\\": 4810,
      "ĠNov": 4811,
      "Ġscen": 4812,
      "Ġtherapy": 4813,
      "ellig": 4814,
      "Ġindu": 4815,
      "Ġpreviously": 4816,
      "dimensional": 4817,
      "orem": 4818,
      "Ġscript": 4819,
      "``": 4820,
      "Ġsave": 4821,
      "ĠST": 4822,
      "Ġstore": 4823,
      "Ġsch": 4824,
      "ĠOver": 4825,
      "rust": 4826,
      "istical": 4827,
      "Ġadjust": 4828,
      "Ġfailure": 4829,
      "body": 4830,
      "ĠDuring": 4831,
      "berg": 4832,
      "Ġswe": 4833,
      "Ġeyes": 4834,
      "Ġbenefit": 4835,
      "Ġgiving": 4836,
      "alt": 4837,
      "Ġdomin": 4838,
      "ymbol": 4839,
      "aus": 4840,
      "ĠMult": 4841,
      "Ġcore": 4842,
      "max": 4843,
      "Ġleaves": 4844,
      "data": 4845,
      "aker": 4846,
      "Ġ32": 4847,
      "TeX": 4848,
      "Ġhappen": 4849,
      "From": 4850,
      "Ġmental": 4851,
      "ĠWork": 4852,
      "Ġfindings": 4853,
      "Ġlegal": 4854,
      "Ġgold": 4855,
      "orage": 4856,
      "ĠKe": 4857,
      "Ġvict": 4858,
      "Ġpet": 4859,
      "pers": 4860,
      "acing": 4861,
      "Ġwanted": 4862,
      "ÃĹ": 4863,
      "ĠBlack": 4864,
      "Ġstars": 4865,
      "Ġspecified": 4866,
      "Ġhistorical": 4867,
      "Ġhappens": 4868,
      "ache": 4869,
      "Ġfundamental": 4870,
      "antic": 4871,
      "ĠInformation": 4872,
      "Ġbreast": 4873,
      "Ġstrategy": 4874,
      "ĠJames": 4875,
      "Ġimplic": 4876,
      "Ġframe": 4877,
      "isher": 4878,
      "rence": 4879,
      "Ġcalculated": 4880,
      "oice": 4881,
      "ĠRed": 4882,
      "Ġcharacters": 4883,
      "'d": 4884,
      "color": 4885,
      "Ġclos": 4886,
      "house": 4887,
      "Ġcovered": 4888,
      "osa": 4889,
      "Ġmajority": 4890,
      "Ġcolon": 4891,
      "gress": 4892,
      "xi": 4893,
      "ĠAng": 4894,
      "Ġcircum": 4895,
      "Ġprecise": 4896,
      "Ġfavor": 4897,
      "delta": 4898,
      "ĠTwo": 4899,
      "Ġstru": 4900,
      "ĠHIV": 4901,
      "iling": 4902,
      "requ": 4903,
      "ĠEv": 4904,
      "Ġenjoy": 4905,
      "Cont": 4906,
      "''": 4907,
      "ped": 4908,
      "Ġpretty": 4909,
      "Ġalt": 4910,
      "ĠRoman": 4911,
      "Ġitems": 4912,
      "ĠPaul": 4913,
      "fort": 4914,
      "Ġ2014": 4915,
      "clude": 4916,
      "Ġcarried": 4917,
      "Ġarticles": 4918,
      "Ġ2002": 4919,
      "ocation": 4920,
      "type": 4921,
      "Ġideal": 4922,
      "Ġderived": 4923,
      "Ġbacteria": 4924,
      "Ġphysic": 4925,
      "aign": 4926,
      "SA": 4927,
      "Ġbank": 4928,
      "Ġwoman": 4929,
      "ĠHouse": 4930,
      "Ġspirit": 4931,
      "Ġreact": 4932,
      "ĠFrance": 4933,
      "related": 4934,
      "Ġsolid": 4935,
      "Ġactions": 4936,
      "pective": 4937,
      "Ġextremely": 4938,
      "Ġwaste": 4939,
      "rary": 4940,
      "Ġstation": 4941,
      "faces": 4942,
      "ĠService": 4943,
      "Ġmission": 4944,
      "rupt": 4945,
      "Ġselected": 4946,
      "Ġentry": 4947,
      "inity": 4948,
      "ĠWater": 4949,
      "ĠCouncil": 4950,
      "Ġpowerful": 4951,
      "asc": 4952,
      "tion": 4953,
      "Ġchanging": 4954,
      "Ġboard": 4955,
      "Ġvoltage": 4956,
      "ĠProt": 4957,
      "Ġhop": 4958,
      "Ġ2001": 4959,
      "Ġimplementation": 4960,
      "Ġ35": 4961,
      "ĠPlan": 4962,
      "Ġtur": 4963,
      "Ġeventually": 4964,
      "Ġprinciple": 4965,
      "ĠUp": 4966,
      "ĠRem": 4967,
      "Ġiron": 4968,
      "Ġprefer": 4969,
      "Ġtriangle": 4970,
      "ĠPower": 4971,
      "Ġ2018": 4972,
      "Ġeveryone": 4973,
      "åı": 4974,
      "Ġwinter": 4975,
      "reet": 4976,
      "ifferent": 4977,
      "cks": 4978,
      "84": 4979,
      "Ġgain": 4980,
      "but": 4981,
      "Ã¶": 4982,
      "quad": 4983,
      "Ġnovel": 4984,
      "Ġslightly": 4985,
      "Ġinterval": 4986,
      "Ġestimates": 4987,
      "Ġbaby": 4988,
      "Ġliterature": 4989,
      "asion": 4990,
      "BC": 4991,
      "plot": 4992,
      "icon": 4993,
      "Delta": 4994,
      "ĠInc": 4995,
      "Ġforeign": 4996,
      "Ġtox": 4997,
      "road": 4998,
      "Ġdivided": 4999,
      "Ġorganization": 5000,
      "Ġnoted": 5001,
      "Ġtrend": 5002,
      "Ġconnection": 5003,
      "æľ": 5004,
      "force": 5005,
      "Ġdiss": 5006,
      "Ġfalse": 5007,
      "ĠReview": 5008,
      "ĠEngine": 5009,
      "ĠBas": 5010,
      "top": 5011,
      "Ġrich": 5012,
      "Ġqual": 5013,
      "ĠISBN": 5014,
      "Ġthick": 5015,
      "AD": 5016,
      "eding": 5017,
      "Ġwindow": 5018,
      "rand": 5019,
      "Ġrepresentation": 5020,
      "}$,": 5021,
      "arr": 5022,
      "rium": 5023,
      "Ġchurch": 5024,
      "Ġreleased": 5025,
      "Ġjournal": 5026,
      "Ġatmosphere": 5027,
      "95": 5028,
      "Ġbalance": 5029,
      "After": 5030,
      "mm": 5031,
      "inf": 5032,
      "Ġindicate": 5033,
      "Ġtou": 5034,
      "ĠÂłĠÂłĠÂłĠÂł": 5035,
      "Ġformal": 5036,
      "rable": 5037,
      "Ġ2015": 5038,
      "Ġrelevant": 5039,
      "cohol": 5040,
      "Pl": 5041,
      "Ġgenes": 5042,
      "Ġopin": 5043,
      "ontal": 5044,
      "Ġselection": 5045,
      "Ġstudied": 5046,
      "ocuments": 5047,
      "atform": 5048,
      "icles": 5049,
      "ĠAD": 5050,
      "Ġseven": 5051,
      "Ġoffice": 5052,
      "ĠAustralia": 5053,
      "Ġantib": 5054,
      "Ġeigen": 5055,
      "ĠFigure": 5056,
      "iant": 5057,
      "ilib": 5058,
      "isation": 5059,
      "Ġemissions": 5060,
      "Ġfriend": 5061,
      "umin": 5062,
      "Ġeating": 5063,
      "Ġcommercial": 5064,
      "essel": 5065,
      "Ġbeaut": 5066,
      "Ġdie": 5067,
      "Ġoffers": 5068,
      "Ġchapter": 5069,
      "section": 5070,
      "anges": 5071,
      "Ġsec": 5072,
      "Ġocean": 5073,
      "Ġfaster": 5074,
      "Ġthousands": 5075,
      "Ġ63": 5076,
      "arden": 5077,
      "ĠJesus": 5078,
      "âĢĿ,": 5079,
      "cious": 5080,
      "Ġprocessing": 5081,
      "Ġfluid": 5082,
      "Ġmob": 5083,
      "ago": 5084,
      "Ind": 5085,
      "Ġdepth": 5086,
      "Ġriver": 5087,
      "Ġheavy": 5088,
      "Ġfig": 5089,
      "Ġminim": 5090,
      "Ġphenomen": 5091,
      "Ġconservation": 5092,
      "Ġsitu": 5093,
      "Ġannual": 5094,
      "omorph": 5095,
      "Ġfilter": 5096,
      "board": 5097,
      "Ġtrib": 5098,
      "umer": 5099,
      "Ġpeak": 5100,
      "Ġcultural": 5101,
      "rome": 5102,
      "viation": 5103,
      "Ġadding": 5104,
      "ĠTheir": 5105,
      "Ġtemperatures": 5106,
      "semb": 5107,
      "Ġoperator": 5108,
      "Ġconflic": 5109,
      "Ġlearned": 5110,
      "ĠExpl": 5111,
      "tex": 5112,
      "war": 5113,
      "ĠIts": 5114,
      "Ġmedicine": 5115,
      "Ġpopulations": 5116,
      "Ġrepresented": 5117,
      "mal": 5118,
      "Ġcru": 5119,
      "Ġradius": 5120,
      "ĠUnder": 5121,
      "Ġcook": 5122,
      "Ġmeasurements": 5123,
      "Ġtrou": 5124,
      "Ġreturned": 5125,
      "vari": 5126,
      "Ġmanif": 5127,
      "See": 5128,
      "XX": 5129,
      "ĠMart": 5130,
      "Int": 5131,
      "ĠInf": 5132,
      "mary": 5133,
      "isc": 5134,
      "Ġexperiments": 5135,
      "enth": 5136,
      "Ġteacher": 5137,
      "IM": 5138,
      "ĠSpace": 5139,
      "ologist": 5140,
      "Ġapproxim": 5141,
      "Ġiniti": 5142,
      "ball": 5143,
      "ĠChem": 5144,
      "ĠGermany": 5145,
      "UR": 5146,
      "utive": 5147,
      "lick": 5148,
      "ĠDevelopment": 5149,
      "ĠFurther": 5150,
      "Ġpresident": 5151,
      ")/": 5152,
      "Ġsaying": 5153,
      "Ġsav": 5154,
      "itors": 5155,
      "Ġuniform": 5156,
      "Ġdiscussed": 5157,
      "den": 5158,
      "omega": 5159,
      "Ġletters": 5160,
      "Ġreferred": 5161,
      "Ġassign": 5162,
      "ception": 5163,
      "Ġdigital": 5164,
      "ĠSep": 5165,
      "Ġcombined": 5166,
      "Ġholds": 5167,
      "var": 5168,
      "Ġgir": 5169,
      "ĠMiss": 5170,
      "Ġemail": 5171,
      "anging": 5172,
      "Ġrequirements": 5173,
      "ĠRich": 5174,
      "Ġking": 5175,
      "ortunately": 5176,
      "Ġopportunity": 5177,
      "leg": 5178,
      "My": 5179,
      "ĠMedical": 5180,
      "Ġpure": 5181,
      "ĠSen": 5182,
      "Ġatoms": 5183,
      "Ġprofessional": 5184,
      ")}": 5185,
      "Ġerrors": 5186,
      "ĠMass": 5187,
      "ĠProble": 5188,
      "Ġmaintain": 5189,
      "airs": 5190,
      "ĠDem": 5191,
      "stein": 5192,
      "Figure": 5193,
      "roph": 5194,
      "Ġemot": 5195,
      "Ġprices": 5196,
      "field": 5197,
      "Ġcro": 5198,
      "cules": 5199,
      "Ġfemale": 5200,
      "function": 5201,
      "Ġbelong": 5202,
      "Ġmaps": 5203,
      "ĠIN": 5204,
      "Ġdescription": 5205,
      "sim": 5206,
      "ansion": 5207,
      "cm": 5208,
      "ĠFe": 5209,
      "ĠNASA": 5210,
      "ears": 5211,
      "http": 5212,
      "normal": 5213,
      "ĠMars": 5214,
      "ĠOut": 5215,
      "While": 5216,
      "Ġbuy": 5217,
      "zing": 5218,
      "pat": 5219,
      "Ġadvantage": 5220,
      "Ġpolar": 5221,
      "Ġrational": 5222,
      "Ġminor": 5223,
      "Ġgeometry": 5224,
      "rices": 5225,
      "ĠMuseum": 5226,
      "ĠWindows": 5227,
      "Ġassist": 5228,
      "Ġcontract": 5229,
      "efore": 5230,
      "Ġec": 5231,
      "Ġillness": 5232,
      "Ġvill": 5233,
      "Ġconsists": 5234,
      "Ġnative": 5235,
      "Ġ1999": 5236,
      "ishes": 5237,
      "ressed": 5238,
      "Ġtissue": 5239,
      "cons": 5240,
      "Ġshowing": 5241,
      "Ġformation": 5242,
      "Ġexternal": 5243,
      "EM": 5244,
      "Ġwatch": 5245,
      "Ġkm": 5246,
      "Ġtransition": 5247,
      "ĠSy": 5248,
      "ida": 5249,
      "ĠGroup": 5250,
      "Ġlanguages": 5251,
      "Ġaxis": 5252,
      "olf": 5253,
      "Ġmostly": 5254,
      "âĢĿ.": 5255,
      "Ġyourself": 5256,
      "Ġeducational": 5257,
      "ĠHam": 5258,
      "Ġcollabor": 5259,
      "Ġcele": 5260,
      "Ġsigns": 5261,
      "Ġconcepts": 5262,
      "Ġprogramming": 5263,
      "Ġnan": 5264,
      "ĠEr": 5265,
      "Ġstrategies": 5266,
      "Ġhuge": 5267,
      "edic": 5268,
      "ĠJun": 5269,
      "ĠAnalysis": 5270,
      "Ġdimension": 5271,
      "ĠWestern": 5272,
      "ĠFore": 5273,
      "Ġdatabase": 5274,
      "ĠMac": 5275,
      "ĠAny": 5276,
      "Ġconstraint": 5277,
      "Ġexpressed": 5278,
      "ologists": 5279,
      "ĠPal": 5280,
      "Ġbone": 5281,
      "Ġisol": 5282,
      "Ġdepending": 5283,
      "Ġwidely": 5284,
      "ructure": 5285,
      "ĠPeople": 5286,
      "comm": 5287,
      "</": 5288,
      "ĠChapter": 5289,
      "Ġelectrons": 5290,
      "ĠAnsw": 5291,
      "En": 5292,
      "Ġstim": 5293,
      "Ġprime": 5294,
      "ĠSystems": 5295,
      "Ġplans": 5296,
      "ING": 5297,
      "Ġnetworks": 5298,
      "Ġconsumption": 5299,
      "reci": 5300,
      "Ġtitle": 5301,
      "Ġsac": 5302,
      "Ġlik": 5303,
      "rian": 5304,
      "path": 5305,
      "ias": 5306,
      "ĠGa": 5307,
      "Ġwaves": 5308,
      "za": 5309,
      "ects": 5310,
      "Ġsurgery": 5311,
      "Ġyield": 5312,
      "ĠPo": 5313,
      "Ġattract": 5314,
      "ĠAC": 5315,
      "ensus": 5316,
      "Ġgrid": 5317,
      "bal": 5318,
      "Ġorbit": 5319,
      "Ġrect": 5320,
      "ĠForm": 5321,
      "Ġ2016": 5322,
      "Ġchallenge": 5323,
      "Ġfreedom": 5324,
      "ĠMary": 5325,
      "98": 5326,
      "ĠTex": 5327,
      "Ġemphas": 5328,
      "Gen": 5329,
      "Ġprofessor": 5330,
      "ĠGeorge": 5331,
      "ĠMedicine": 5332,
      "Ġperm": 5333,
      "Ġ<-": 5334,
      "Ġturned": 5335,
      "Ġcompre": 5336,
      "porary": 5337,
      "ĠControl": 5338,
      "list": 5339,
      "^\\": 5340,
      "Ġquad": 5341,
      "ĠRepublic": 5342,
      "Ġgalax": 5343,
      "ĠDon": 5344,
      "(-": 5345,
      "Ġextract": 5346,
      "ĠHuman": 5347,
      "De": 5348,
      "upp": 5349,
      "pack": 5350,
      "Ġsugar": 5351,
      "ĠDist": 5352,
      "Ġadvanced": 5353,
      "Since": 5354,
      "Ġelectrical": 5355,
      "Ġchain": 5356,
      "Â·Â·Â·Â·Â·Â·Â·Â·": 5357,
      "ĠSum": 5358,
      "leq": 5359,
      "Ġlinks": 5360,
      "Ġglass": 5361,
      "Ġconducted": 5362,
      "bin": 5363,
      "gency": 5364,
      "Ġmatch": 5365,
      "ossible": 5366,
      "Ġdetailed": 5367,
      "Ġcities": 5368,
      "CH": 5369,
      "Ġguess": 5370,
      "ĠNews": 5371,
      "??": 5372,
      "Ġbond": 5373,
      "Ġ68": 5374,
      "Ġliquid": 5375,
      "Ġstaff": 5376,
      "aven": 5377,
      "kin": 5378,
      "2010": 5379,
      "Ġreturns": 5380,
      "poses": 5381,
      "Ġlic": 5382,
      "Ġpractices": 5383,
      "Ġaspects": 5384,
      "ĠAir": 5385,
      "ĠMr": 5386,
      "olve": 5387,
      "Ġresist": 5388,
      "Ġmist": 5389,
      "ĠMethod": 5390,
      "ours": 5391,
      "Ġmeant": 5392,
      "eria": 5393,
      "Ġring": 5394,
      "Ġexplicit": 5395,
      "iveness": 5396,
      "Ġmale": 5397,
      "Ġexplained": 5398,
      "ĠArt": 5399,
      "Ġlatter": 5400,
      "ĠGreek": 5401,
      "Ġidentity": 5402,
      "aped": 5403,
      "Ġcircuit": 5404,
      "Ġfrequently": 5405,
      "Ġengineering": 5406,
      "Ġtens": 5407,
      "conds": 5408,
      "Ġlimits": 5409,
      "Ġorganic": 5410,
      "Ġsecret": 5411,
      "Ġsuggested": 5412,
      "Ġdestroy": 5413,
      "Ġexcess": 5414,
      "Ġguide": 5415,
      "Ġmeasurement": 5416,
      "][": 5417,
      "Ġclinical": 5418,
      "Ġdecades": 5419,
      "Ġserver": 5420,
      "Ġrank": 5421,
      "Ġleads": 5422,
      "Ġwidth": 5423,
      "big": 5424,
      "ifies": 5425,
      "ĠLibrary": 5426,
      "ega": 5427,
      "ĠGovernment": 5428,
      "Ġreached": 5429,
      "Ġgames": 5430,
      "Ġfresh": 5431,
      "Ġcreation": 5432,
      "uracy": 5433,
      "Ġfix": 5434,
      "93": 5435,
      "hand": 5436,
      "Ġplanning": 5437,
      "Ġfruit": 5438,
      "Ġvertical": 5439,
      "ĠSet": 5440,
      "anged": 5441,
      "Ġdownload": 5442,
      "ords": 5443,
      "iring": 5444,
      "Ġdecided": 5445,
      "ĠAM": 5446,
      "ĠLi": 5447,
      "ĠCatholic": 5448,
      "Ġdoll": 5449,
      "Ġuniverse": 5450,
      "SC": 5451,
      "ara": 5452,
      "Ġspectrum": 5453,
      "Ġquar": 5454,
      "Ġindeed": 5455,
      "Last": 5456,
      "Ġbodies": 5457,
      "Ġrequest": 5458,
      "ĠType": 5459,
      "roduct": 5460,
      "ptions": 5461,
      "Ġfaith": 5462,
      "Ġvision": 5463,
      "Ġroots": 5464,
      "plication": 5465,
      "spec": 5466,
      "ĠAP": 5467,
      "ĠCD": 5468,
      "ĠWell": 5469,
      "Ġapproaches": 5470,
      "Ġserve": 5471,
      "----------------": 5472,
      "ping": 5473,
      "Ġaccurate": 5474,
      "ĠSecond": 5475,
      "ilibrium": 5476,
      "alog": 5477,
      "ĠMal": 5478,
      "Ġloop": 5479,
      "Ġexperien": 5480,
      "Ġnode": 5481,
      "uting": 5482,
      "Ġstorage": 5483,
      "500": 5484,
      "81": 5485,
      "Ġparty": 5486,
      "Ġindustrial": 5487,
      "Ġhit": 5488,
      "het": 5489,
      "ario": 5490,
      "van": 5491,
      "Ġdisorder": 5492,
      "}+": 5493,
      "Ġsubsequ": 5494,
      "Ġconsistent": 5495,
      "ĠSal": 5496,
      "Ġapparent": 5497,
      "Ġ1990": 5498,
      "ikip": 5499,
      "')": 5500,
      "ĠSam": 5501,
      "ĠHol": 5502,
      "Ġresolution": 5503,
      "Ġunless": 5504,
      "Ġinvolves": 5505,
      "ĠOpen": 5506,
      "Ġempt": 5507,
      "Ġthin": 5508,
      "acific": 5509,
      "Ġtechnical": 5510,
      "Ġopposite": 5511,
      "ĠThomas": 5512,
      "oding": 5513,
      "Ġoperating": 5514,
      "Ġwhom": 5515,
      "Ġbelieved": 5516,
      "otal": 5517,
      "Ġpractical": 5518,
      ".:": 5519,
      "ithm": 5520,
      "Ġpolicies": 5521,
      "ĠEconom": 5522,
      "Ġderivative": 5523,
      "83": 5524,
      "IG": 5525,
      "Ġtypical": 5526,
      "Ġcoal": 5527,
      "ĠTheory": 5528,
      "rho": 5529,
      "Ġfinally": 5530,
      "SD": 5531,
      "Ġstable": 5532,
      "Ġcertainly": 5533,
      "Ġrecommended": 5534,
      "rations": 5535,
      "unk": 5536,
      "Ġimproved": 5537,
      "ĠTechnology": 5538,
      "Ġparticipants": 5539,
      "west": 5540,
      "atever": 5541,
      "Ġstored": 5542,
      "ĠPub": 5543,
      "Ġteach": 5544,
      "ĠRobert": 5545,
      "Ġonto": 5546,
      "ĠMD": 5547,
      "Ġconcentration": 5548,
      "])": 5549,
      "96": 5550,
      "ructions": 5551,
      "free": 5552,
      "Ġcandid": 5553,
      "CD": 5554,
      "Ġfert": 5555,
      "Ġpeace": 5556,
      "Ġmac": 5557,
      "Ġspin": 5558,
      "ikipedia": 5559,
      "Ġmo": 5560,
      "Ġkid": 5561,
      "ĠOrgan": 5562,
      "Ġdecisions": 5563,
      "html": 5564,
      "Ġlogic": 5565,
      "Ġwet": 5566,
      "ria": 5567,
      "long": 5568,
      "Ġintended": 5569,
      "Ġprepar": 5570,
      "Ġmeeting": 5571,
      "Ġsouthern": 5572,
      "ĠPC": 5573,
      "Ġdirectory": 5574,
      "ĠAtl": 5575,
      "Ġlegis": 5576,
      "agnetic": 5577,
      "vis": 5578,
      "Ġburn": 5579,
      "cycl": 5580,
      "ĠBoth": 5581,
      "Ġmer": 5582,
      "Ġprinciples": 5583,
      "fit": 5584,
      "Ġvessel": 5585,
      "Ġcomments": 5586,
      "Ġsam": 5587,
      "Ġinverse": 5588,
      "Ġarbit": 5589,
      "Ġmetric": 5590,
      "ĠModel": 5591,
      "ented": 5592,
      "Ġbreath": 5593,
      "Ġincorpor": 5594,
      "Ġchosen": 5595,
      "Ġstock": 5596,
      "Ġconvent": 5597,
      "Ġesc": 5598,
      "eli": 5599,
      "Ġemb": 5600,
      "Ġregarding": 5601,
      "Ġcoordinates": 5602,
      "Ġstories": 5603,
      "Ġnotice": 5604,
      "Ġsend": 5605,
      "Ġalgorithms": 5606,
      "asure": 5607,
      "Ġtested": 5608,
      "sm": 5609,
      "Ġphilosoph": 5610,
      "Ġvectors": 5611,
      "ĠAnn": 5612,
      "Ġsector": 5613,
      "Ġstorm": 5614,
      "apes": 5615,
      "oting": 5616,
      "ĠPers": 5617,
      "Ġregression": 5618,
      "Ġtru": 5619,
      "ya": 5620,
      "Ġrough": 5621,
      "ĠBra": 5622,
      "Ġextent": 5623,
      "Fig": 5624,
      "Ġamounts": 5625,
      "Ġdistingu": 5626,
      "rich": 5627,
      "ails": 5628,
      "band": 5629,
      "Ġtun": 5630,
      "OM": 5631,
      "Ġcampaign": 5632,
      "ĠRad": 5633,
      "Ġremaining": 5634,
      "Ġunknown": 5635,
      "Ġbrief": 5636,
      "cel": 5637,
      "However": 5638,
      "Ġcollected": 5639,
      "cosystem": 5640,
      "ĠBer": 5641,
      "Ġelimin": 5642,
      "ĠJapanese": 5643,
      "Ġcategory": 5644,
      "Ġblog": 5645,
      "tau": 5646,
      "iled": 5647,
      "Ġspent": 5648,
      "ees": 5649,
      "under": 5650,
      "Ġfamous": 5651,
      "Ġcollege": 5652,
      "Ġbatter": 5653,
      "Ġdirector": 5654,
      "Ġproperly": 5655,
      "ĠAlex": 5656,
      "Ġdatas": 5657,
      "Ġexposed": 5658,
      "Ġpercentage": 5659,
      "roid": 5660,
      "Ġalcohol": 5661,
      "Ġexplore": 5662,
      "Ġastron": 5663,
      "Ġelectricity": 5664,
      "Ġinvolve": 5665,
      "Ġsand": 5666,
      "2012": 5667,
      "Ġexplanation": 5668,
      "ĠJose": 5669,
      "Ġple": 5670,
      "Ġmouth": 5671,
      "Ġroll": 5672,
      "comes": 5673,
      "ĠQuestion": 5674,
      "ĠMexico": 5675,
      "Ġnice": 5676,
      "ture": 5677,
      "ĠStep": 5678,
      "Ġkilled": 5679,
      "Ġplatform": 5680,
      "Ġmissing": 5681,
      "Ġsusp": 5682,
      "Ġhorizontal": 5683,
      "Ġclassical": 5684,
      "Ġsmooth": 5685,
      "Ġsplit": 5686,
      "roke": 5687,
      "Ġ]": 5688,
      "pire": 5689,
      "ĠSpanish": 5690,
      "ademic": 5691,
      "ĠLine": 5692,
      "eline": 5693,
      "Ġfunctional": 5694,
      "ĠOnce": 5695,
      "file": 5696,
      "Ġtechnologies": 5697,
      "ĠÃĹ": 5698,
      "estions": 5699,
      "........": 5700,
      "Ġhair": 5701,
      "ĠSte": 5702,
      "Ġreducing": 5703,
      "82": 5704,
      "OC": 5705,
      "incipal": 5706,
      "car": 5707,
      "Ġlinked": 5708,
      "ĠâĨĴ": 5709,
      "Ġinstrument": 5710,
      "Ġarguments": 5711,
      "Ġscore": 5712,
      "Ġmolecules": 5713,
      "document": 5714,
      "Ġinject": 5715,
      "ĠMet": 5716,
      "Ġchart": 5717,
      "Ġshell": 5718,
      "ref": 5719,
      "Ġpurposes": 5720,
      "Ġutil": 5721,
      "Ġuncertain": 5722,
      "ka": 5723,
      "Ġsubstant": 5724,
      "Ġindicates": 5725,
      "Ġpartial": 5726,
      "Ġmixed": 5727,
      "ĠLou": 5728,
      "aste": 5729,
      "ishing": 5730,
      "epsilon": 5731,
      "Ġkept": 5732,
      "Ġmultip": 5733,
      "),(": 5734,
      "Ġcomparison": 5735,
      "ras": 5736,
      "ĠUs": 5737,
      "ĠBel": 5738,
      "rition": 5739,
      "gamma": 5740,
      "Ġmanner": 5741,
      "Ġtopics": 5742,
      "pm": 5743,
      "cers": 5744,
      "ĠMount": 5745,
      "ĠLabor": 5746,
      "ĠIslam": 5747,
      "Ġmechanism": 5748,
      "Ġinsect": 5749,
      "asks": 5750,
      "They": 5751,
      "ĠTop": 5752,
      "Ġflood": 5753,
      "Ġdescribes": 5754,
      "Ġflat": 5755,
      "astern": 5756,
      "ĠHy": 5757,
      "ĠTexas": 5758,
      "Ġbed": 5759,
      "Ġneighbor": 5760,
      "IR": 5761,
      "UN": 5762,
      "udd": 5763,
      "ĠConf": 5764,
      "crib": 5765,
      "onym": 5766,
      "More": 5767,
      "Ġexpansion": 5768,
      "Ġcitizens": 5769,
      "Ġdrop": 5770,
      "Ġlived": 5771,
      "Ġangles": 5772,
      "}.": 5773,
      "Ġlooked": 5774,
      "****": 5775,
      "Ġ66": 5776,
      "Ġtradition": 5777,
      "Ġ2019": 5778,
      "Ġmilk": 5779,
      "idation": 5780,
      "gypt": 5781,
      "Ġwest": 5782,
      "vision": 5783,
      "Ġcomprehens": 5784,
      "Ġorganizations": 5785,
      "Ġexperimental": 5786,
      "]:": 5787,
      "ĠHen": 5788,
      "rates": 5789,
      "Ġ&=": 5790,
      "Ġoccurred": 5791,
      "Ġsubjects": 5792,
      "ĠPri": 5793,
      "ĠNon": 5794,
      "ounced": 5795,
      "Ġnorthern": 5796,
      "stood": 5797,
      "ictionary": 5798,
      "using": 5799,
      "Ġcompleted": 5800,
      "Ġthread": 5801,
      "Ġinnov": 5802,
      "Ġextended": 5803,
      "Ġrestrict": 5804,
      "Ġlung": 5805,
      "Ġunf": 5806,
      "Ġnumerous": 5807,
      "how": 5808,
      "Ġdecrease": 5809,
      "ĠFoundation": 5810,
      "97": 5811,
      "Ġelectro": 5812,
      "('": 5813,
      "Ġ!": 5814,
      "alar": 5815,
      "Ġkinds": 5816,
      "Ġdram": 5817,
      "Americ": 5818,
      "Ġframework": 5819,
      "IP": 5820,
      "ĠTime": 5821,
      "ĠTur": 5822,
      "ague": 5823,
      "wood": 5824,
      "rd": 5825,
      "cipl": 5826,
      "ĠAsia": 5827,
      "Ġfilm": 5828,
      "Ġinequ": 5829,
      "Ġdocuments": 5830,
      "Ġexperts": 5831,
      "Ġheard": 5832,
      "ĠDiv": 5833,
      "cluding": 5834,
      "Ġfamiliar": 5835,
      "Ġcompl": 5836,
      "Ġlisted": 5837,
      "Ġgrant": 5838,
      "ĠTra": 5839,
      "ĠPen": 5840,
      "ĠChildren": 5841,
      "Ġcompute": 5842,
      "imer": 5843,
      "ded": 5844,
      "gu": 5845,
      "trans": 5846,
      "Ġcausing": 5847,
      "ĠVirgin": 5848,
      "Ġstem": 5849,
      "ĠUK": 5850,
      "94": 5851,
      "ĠPlease": 5852,
      "ĠGal": 5853,
      "oxide": 5854,
      ")-": 5855,
      "itan": 5856,
      ".[": 5857,
      "ĠEvery": 5858,
      "Ġprimarily": 5859,
      "Ġcalls": 5860,
      "Ġurban": 5861,
      "rep": 5862,
      "ny": 5863,
      "Ġfill": 5864,
      "eties": 5865,
      "Ġdistributed": 5866,
      "Ġhospital": 5867,
      "Ġpartners": 5868,
      "Ġampl": 5869,
      "iance": 5870,
      "ĠFunction": 5871,
      "eq": 5872,
      "fall": 5873,
      "Ġhence": 5874,
      "Ġrecorded": 5875,
      "Ġgoals": 5876,
      "Most": 5877,
      "Ġserved": 5878,
      "Ġbuildings": 5879,
      "doi": 5880,
      "urity": 5881,
      "Ġchallenges": 5882,
      "ln": 5883,
      "ĠGra": 5884,
      "Ġinsert": 5885,
      "ĠArab": 5886,
      "Ġbecoming": 5887,
      "Other": 5888,
      "standing": 5889,
      "Ġconve": 5890,
      "ĠOh": 5891,
      "Ġcourt": 5892,
      "fficients": 5893,
      "Ġpi": 5894,
      "ĠSocial": 5895,
      "nel": 5896,
      "Ġready": 5897,
      "Ġmuscle": 5898,
      "Ġsexual": 5899,
      "Ed": 5900,
      "ĠScient": 5901,
      "ĠSuch": 5902,
      "Ġaccuracy": 5903,
      "Ġinfluen": 5904,
      "Ġmere": 5905,
      "Ġflex": 5906,
      "Ġshar": 5907,
      "rem": 5908,
      "ĠCivil": 5909,
      "Ġproduces": 5910,
      "Ġstatistics": 5911,
      "ĠCamb": 5912,
      "iful": 5913,
      "abil": 5914,
      "Ġdivers": 5915,
      "Ġhydrogen": 5916,
      "Ġstrugg": 5917,
      "circ": 5918,
      "Ġinh": 5919,
      "Ġdisorders": 5920,
      "Ġhighlight": 5921,
      "Ġimmune": 5922,
      "pace": 5923,
      "inder": 5924,
      "Ġ500": 5925,
      "Ġtrial": 5926,
      ")+": 5927,
      "Ġvolunt": 5928,
      "Ġreb": 5929,
      "such": 5930,
      "Ġsoci": 5931,
      "ĠTable": 5932,
      "å¤": 5933,
      "Ġlargely": 5934,
      "Ġpapers": 5935,
      "hematic": 5936,
      "OL": 5937,
      "char": 5938,
      "Ġconcern": 5939,
      "Ġrepeated": 5940,
      "rangle": 5941,
      "Ġfear": 5942,
      "Ġhur": 5943,
      "ĠPacific": 5944,
      "ĠEgypt": 5945,
      "Ġoperators": 5946,
      "date": 5947,
      "ĠBen": 5948,
      "Ġ36": 5949,
      "ĠExp": 5950,
      "Ġterrit": 5951,
      "idden": 5952,
      "Ġintellig": 5953,
      "ĠShow": 5954,
      "EL": 5955,
      "Ġpossibly": 5956,
      "urance": 5957,
      "Ġcompare": 5958,
      "Ġreligion": 5959,
      "Ġcoefficient": 5960,
      "Ġinteraction": 5961,
      "Ġsignals": 5962,
      "ĠOffice": 5963,
      "ndrome": 5964,
      "reds": 5965,
      "ifier": 5966,
      "ĠPort": 5967,
      "inations": 5968,
      "ĠOF": 5969,
      "Ġcomplexity": 5970,
      "Ġseed": 5971,
      "Ġ300": 5972,
      "Ġmainly": 5973,
      "Although": 5974,
      "Ġinterface": 5975,
      "ĠĠĠĠĠ": 5976,
      "Ġmatrices": 5977,
      "Ġnecessarily": 5978,
      "lig": 5979,
      "uls": 5980,
      "Ġempty": 5981,
      "test": 5982,
      "Ġsimulation": 5983,
      "Ġperiods": 5984,
      "hetic": 5985,
      "ville": 5986,
      "rogen": 5987,
      "Ġmel": 5988,
      "Ġbattle": 5989,
      "ĠAnother": 5990,
      "Ġmort": 5991,
      ")$.": 5992,
      "ĠGoogle": 5993,
      "Ġmagnitude": 5994,
      "cience": 5995,
      "ĠWhite": 5996,
      "Ġvisible": 5997,
      "ĠPDF": 5998,
      "Ġfoss": 5999,
      "Ġsolving": 6000,
      "ĠMo": 6001,
      "ĠThanks": 6002,
      "Ġ1998": 6003,
      "Ġspecifically": 6004,
      "Ġfif": 6005,
      "Ġcontained": 6006,
      "AA": 6007,
      "scale": 6008,
      "Ġeast": 6009,
      "ĠId": 6010,
      "bf": 6011,
      "orter": 6012,
      "Ġship": 6013,
      "Ġshared": 6014,
      "Ġrace": 6015,
      "ailed": 6016,
      "Ġkn": 6017,
      "ĠFood": 6018,
      "Ġinner": 6019,
      "Ġexcell": 6020,
      "essor": 6021,
      "Ġrisks": 6022,
      "Ġoptimal": 6023,
      "Ġconfiguration": 6024,
      "Ġbinary": 6025,
      "Ġreality": 6026,
      "Ġstated": 6027,
      "ĠCentral": 6028,
      "Ġscheme": 6029,
      "ĠBook": 6030,
      "Ġgreatest": 6031,
      "Ġdimensions": 6032,
      "this": 6033,
      "Can": 6034,
      "ĠLord": 6035,
      "Ġpairs": 6036,
      "icks": 6037,
      "Ġnit": 6038,
      "ctic": 6039,
      "Ġnodes": 6040,
      "Ġid": 6041,
      "ĠGet": 6042,
      "Ġdisapp": 6043,
      "sem": 6044,
      "Go": 6045,
      "cluded": 6046,
      "Ġimpossible": 6047,
      "First": 6048,
      "Ġstrain": 6049,
      "Ġhundred": 6050,
      "Ã¼": 6051,
      "Ġ`": 6052,
      "Ġ//": 6053,
      "Ġhear": 6054,
      "Ġexpert": 6055,
      "ĠSmith": 6056,
      "CL": 6057,
      "}=\\": 6058,
      "Ġvs": 6059,
      "Ġrul": 6060,
      "ado": 6061,
      "Ġextension": 6062,
      "Ġassessment": 6063,
      "ä½": 6064,
      "ĠNumber": 6065,
      "Ġmotor": 6066,
      "arant": 6067,
      "Ġlatest": 6068,
      "Ġisland": 6069,
      "reed": 6070,
      "Ġpieces": 6071,
      "ĠMicro": 6072,
      "Ġjobs": 6073,
      "Ġhelped": 6074,
      "ycl": 6075,
      "scape": 6076,
      "Ġprepared": 6077,
      "Ġappeared": 6078,
      "mega": 6079,
      "amily": 6080,
      "Ġcris": 6081,
      "itative": 6082,
      "idelines": 6083,
      "ĠCommission": 6084,
      "Ġportion": 6085,
      "Ġspeech": 6086,
      "Ġadvance": 6087,
      "Ġwonder": 6088,
      "size": 6089,
      "rox": 6090,
      "Ġtwice": 6091,
      "Ġbill": 6092,
      "ĠList": 6093,
      "Ġintegers": 6094,
      "Ġmolecular": 6095,
      "Ġremained": 6096,
      "Ġmedium": 6097,
      "Ġoverl": 6098,
      "iatric": 6099,
      "ĠExper": 6100,
      "stream": 6101,
      "pping": 6102,
      "Ġpersons": 6103,
      "Ġaccepted": 6104,
      "Ġtang": 6105,
      "Ġexchange": 6106,
      "Ġspot": 6107,
      "Ġwww": 6108,
      "Many": 6109,
      "Ġap": 6110,
      "ĠAp": 6111,
      "lli": 6112,
      "MAT": 6113,
      "92": 6114,
      "Ġhelpful": 6115,
      "Ġstrict": 6116,
      "ĠLatin": 6117,
      "Ġrh": 6118,
      "Ġtour": 6119,
      "ota": 6120,
      "DP": 6121,
      "ancing": 6122,
      "aser": 6123,
      "ĠLearning": 6124,
      "è¿": 6125,
      "Ġvariation": 6126,
      "Ġintegr": 6127,
      "anguage": 6128,
      "Ġnormally": 6129,
      "Le": 6130,
      "Ġion": 6131,
      "riage": 6132,
      "ĠMax": 6133,
      "Ġanalog": 6134,
      "Ġtro": 6135,
      "Ġelev": 6136,
      "example": 6137,
      "rolog": 6138,
      "ĠHome": 6139,
      "ĠIsland": 6140,
      "Ġevaluation": 6141,
      "Ġbrow": 6142,
      "Ġbright": 6143,
      "Ġgrain": 6144,
      "ĠSciences": 6145,
      "Ġevaluate": 6146,
      "gent": 6147,
      "Ġequilibrium": 6148,
      "othe": 6149,
      "Ġuns": 6150,
      "Ġinstitutions": 6151,
      "ding": 6152,
      "run": 6153,
      "istan": 6154,
      "Ġdelay": 6155,
      "Ġclosely": 6156,
      "Ġinches": 6157,
      "Ġbiological": 6158,
      "zon": 6159,
      "Ġwire": 6160,
      "Ġseconds": 6161,
      "ĠFin": 6162,
      "Ġdivision": 6163,
      "Ġwaters": 6164,
      "Ġapart": 6165,
      "åĪ": 6166,
      "Ġecosystem": 6167,
      "Ġconcerns": 6168,
      "ĠLike": 6169,
      "Ġinfections": 6170,
      "ĠMem": 6171,
      "Ġopportunities": 6172,
      "aur": 6173,
      "Ġkill": 6174,
      "scill": 6175,
      "ipped": 6176,
      "Ġbud": 6177,
      "Ġhomes": 6178,
      "Ġmaster": 6179,
      "Ġsnow": 6180,
      "ĠMichael": 6181,
      "}-": 6182,
      "åľ": 6183,
      "fered": 6184,
      "Ġcouple": 6185,
      "Ġintegration": 6186,
      "Ġaren": 6187,
      "ĠDise": 6188,
      "Ġpossibility": 6189,
      "Why": 6190,
      "ĠOx": 6191,
      "According": 6192,
      "bb": 6193,
      "nic": 6194,
      "Ġ33": 6195,
      "Ġcontinues": 6196,
      "hi": 6197,
      "osc": 6198,
      "Ġappreci": 6199,
      "Ġperman": 6200,
      "Ġnucle": 6201,
      "oto": 6202,
      "ĠBro": 6203,
      "ĠSou": 6204,
      "Ġallowing": 6205,
      "Ġslope": 6206,
      "ĠSl": 6207,
      "Ġyes": 6208,
      "pled": 6209,
      "Ġraised": 6210,
      "ä¸Ģ": 6211,
      "Ġ###": 6212,
      "abs": 6213,
      "ĠJud": 6214,
      "Ġmotiv": 6215,
      "greg": 6216,
      "Ġvaccine": 6217,
      "Ġcoefficients": 6218,
      "Ġkil": 6219,
      "Ġbrother": 6220,
      "tices": 6221,
      "oke": 6222,
      "Ġpull": 6223,
      "Ġtells": 6224,
      "Ġhypothesis": 6225,
      "Ġarmy": 6226,
      "cs": 6227,
      "Ġshift": 6228,
      "Ġvul": 6229,
      "plex": 6230,
      "Ġwestern": 6231,
      "ĠManagement": 6232,
      "ĠDan": 6233,
      "Ġchief": 6234,
      "Ġplus": 6235,
      "2013": 6236,
      "Ġdiagnosis": 6237,
      "ua": 6238,
      "Ġcompact": 6239,
      "aturally": 6240,
      "Ġchronic": 6241,
      "Ġdiscovery": 6242,
      "Ġturns": 6243,
      "Ġdiagram": 6244,
      "Ġbegins": 6245,
      "SP": 6246,
      "width": 6247,
      "Ġaid": 6248,
      "2011": 6249,
      "ĠNature": 6250,
      "ĠInstead": 6251,
      "Ġdemoc": 6252,
      "called": 6253,
      "izer": 6254,
      "Ġ1997": 6255,
      "ĠCourt": 6256,
      "Ġtoxic": 6257,
      "TR": 6258,
      "ĠExt": 6259,
      "Â¶": 6260,
      "æĺ": 6261,
      "ĠJer": 6262,
      "elesc": 6263,
      "inding": 6264,
      "Ġunderlying": 6265,
      "Ġdiscover": 6266,
      "cis": 6267,
      "Ġwarming": 6268,
      "Ġentirely": 6269,
      "ĠConst": 6270,
      "ĠTem": 6271,
      "ractions": 6272,
      "Ġreform": 6273,
      "IL": 6274,
      "ptic": 6275,
      "Ġsatell": 6276,
      "Par": 6277,
      "Ġmomentum": 6278,
      "Ġstarts": 6279,
      "\\,": 6280,
      "rays": 6281,
      "Ġpotentially": 6282,
      "Ġcontrolled": 6283,
      "ĠSov": 6284,
      "ulum": 6285,
      "Ġquantity": 6286,
      "cial": 6287,
      "othing": 6288,
      "Ġdiameter": 6289,
      "ĠStudy": 6290,
      "Ġmanufacture": 6291,
      "ux": 6292,
      "pring": 6293,
      "Ġrapidly": 6294,
      "Ġvehicle": 6295,
      "AG": 6296,
      "Ġwa": 6297,
      "Ġnumerical": 6298,
      "oyal": 6299,
      "Ġpal": 6300,
      "Ġrefers": 6301,
      "ĠFlor": 6302,
      "Ġofficials": 6303,
      "Ġmodified": 6304,
      "Ġeditor": 6305,
      "Ġaer": 6306,
      "ĠArmy": 6307,
      "Ġjour": 6308,
      "heric": 6309,
      "Ġsubt": 6310,
      "inet": 6311,
      "Ġ==": 6312,
      "ulus": 6313,
      "ĠMill": 6314,
      "Ġwealth": 6315,
      "Ġconsult": 6316,
      "Question": 6317,
      "Ġunderstood": 6318,
      "Ġnutri": 6319,
      "Ġrelationships": 6320,
      "Ġpositions": 6321,
      "ĠIr": 6322,
      "iced": 6323,
      "Ġconcerned": 6324,
      "Ġchannel": 6325,
      "Ġhandle": 6326,
      "ĠNav": 6327,
      "Ġgravity": 6328,
      "Ġplate": 6329,
      "Ġsustainable": 6330,
      "Ġplayer": 6331,
      "ament": 6332,
      "cium": 6333,
      "Ġmaybe": 6334,
      "Ġruns": 6335,
      "Ġencourage": 6336,
      "HO": 6337,
      "Ġfrag": 6338,
      "ognitive": 6339,
      "fra": 6340,
      "Ġclaims": 6341,
      "atial": 6342,
      "ĠRo": 6343,
      "Ġfigures": 6344,
      "Do": 6345,
      "ĠApplic": 6346,
      "Ġconvert": 6347,
      "Ġreplaced": 6348,
      "Ġcomposition": 6349,
      "Ġtalking": 6350,
      "Ġfarmers": 6351,
      "rat": 6352,
      "Ġ(\\": 6353,
      "Ġinfl": 6354,
      "RC": 6355,
      "ernel": 6356,
      "Ġintroduction": 6357,
      "ĠLog": 6358,
      "bolds": 6359,
      "ĠJoseph": 6360,
      "aughter": 6361,
      "Ġgrade": 6362,
      "cyclop": 6363,
      "Ġplayed": 6364,
      "Ġcoordinate": 6365,
      "ĠMuslim": 6366,
      "Ġadvice": 6367,
      "Ġauthority": 6368,
      "ĠOld": 6369,
      "Ġgoods": 6370,
      "iki": 6371,
      "Ġmassive": 6372,
      "Ġopinion": 6373,
      "Ġforced": 6374,
      "Ġinvestment": 6375,
      "Ġinvolving": 6376,
      "ĠLong": 6377,
      "Ġknew": 6378,
      "vin": 6379,
      "Î±": 6380,
      "ĠText": 6381,
      "Ġabund": 6382,
      "return": 6383,
      "Ġodd": 6384,
      "Ġunlike": 6385,
      "Ġwhereas": 6386,
      "lementary": 6387,
      "Ġreject": 6388,
      "Ġvitamin": 6389,
      "Ġgraphs": 6390,
      "Ġaw": 6391,
      "Ġcorrelation": 6392,
      "Ġcolumns": 6393,
      "ĠLand": 6394,
      "Ġblocks": 6395,
      "åħ": 6396,
      "akers": 6397,
      "ĠStudents": 6398,
      "boldsymbol": 6399,
      "Ã³": 6400,
      "Ġneither": 6401,
      "Ġclim": 6402,
      "Ġeffectively": 6403,
      "Ġoffered": 6404,
      "Ġautomatically": 6405,
      "Ġexceed": 6406,
      "Ġmedications": 6407,
      "ĠDel": 6408,
      "Ġrevolution": 6409,
      "Abstract": 6410,
      "Not": 6411,
      "}^{\\": 6412,
      "ca": 6413,
      "ĠCommit": 6414,
      "Ġcalculation": 6415,
      "Ġdial": 6416,
      "Ġfailed": 6417,
      "going": 6418,
      "å®": 6419,
      "Ġsuitable": 6420,
      "ĠRussian": 6421,
      "sembly": 6422,
      "ĠCre": 6423,
      "Ġusual": 6424,
      "Ġachieved": 6425,
      "Ġ1980": 6426,
      "pdf": 6427,
      "Ġstuff": 6428,
      "bran": 6429,
      "Ġagricultural": 6430,
      "Ġfloor": 6431,
      "91": 6432,
      "ĠTHE": 6433,
      "ults": 6434,
      "Ġcorrectly": 6435,
      "ĠTheorem": 6436,
      "Ġtut": 6437,
      "ĠHall": 6438,
      "Ġ1995": 6439,
      "Ġcalculator": 6440,
      "MP": 6441,
      "Ġhaz": 6442,
      "unic": 6443,
      "Ġappoint": 6444,
      "verty": 6445,
      "Ġpoverty": 6446,
      "Ġobservation": 6447,
      "ĠEar": 6448,
      "oined": 6449,
      "rus": 6450,
      "Ġpun": 6451,
      "Ġthermal": 6452,
      "Our": 6453,
      "Ġpark": 6454,
      "ĠLaTeX": 6455,
      "Ġcere": 6456,
      "Ġexplains": 6457,
      "uable": 6458,
      "writ": 6459,
      "Ad": 6460,
      "ĠSection": 6461,
      "Ġvent": 6462,
      "Ġcredit": 6463,
      "Ġchemicals": 6464,
      "Ġsalt": 6465,
      "care": 6466,
      "Ġfirm": 6467,
      "agues": 6468,
      "Ġgrass": 6469,
      "ini": 6470,
      "Ġorient": 6471,
      "Ġtreatments": 6472,
      "Ġnarrow": 6473,
      "Ġexperiences": 6474,
      "axis": 6475,
      "orrow": 6476,
      "Ġpaid": 6477,
      "Ġmoon": 6478,
      "ĠEst": 6479,
      "iler": 6480,
      "ĠNor": 6481,
      "ĠExample": 6482,
      "Ġsections": 6483,
      "Ġstatistical": 6484,
      "ola": 6485,
      "Ġvast": 6486,
      "ĠWall": 6487,
      "Ġthanks": 6488,
      "itudes": 6489,
      "Ġcontribute": 6490,
      "chers": 6491,
      "Ġclassroom": 6492,
      "Ġmarked": 6493,
      "]]": 6494,
      "ĠOnly": 6495,
      "ependent": 6496,
      "Ġpros": 6497,
      "ilation": 6498,
      "?\"": 6499,
      "Ġcomputing": 6500,
      "Ġble": 6501,
      "ĠPython": 6502,
      "zed": 6503,
      "Ġobjective": 6504,
      "Ġmorning": 6505,
      "group": 6506,
      "adian": 6507,
      "emic": 6508,
      "ĠFact": 6509,
      "Ġhundreds": 6510,
      "Ġlect": 6511,
      "Ġinteractions": 6512,
      "========": 6513,
      "Ġwish": 6514,
      "æĪ": 6515,
      "Ġbird": 6516,
      "ĠTer": 6517,
      "Ġcomputers": 6518,
      "Ġassumed": 6519,
      "Ġrig": 6520,
      "Ġdefinite": 6521,
      "ĠPet": 6522,
      "itivity": 6523,
      "Ġprotocol": 6524,
      "Ġsequences": 6525,
      "Ġdependent": 6526,
      "Ġsomewhat": 6527,
      "xy": 6528,
      "ĠNatural": 6529,
      "Ġchrom": 6530,
      "plete": 6531,
      "ĠReport": 6532,
      "ĠPract": 6533,
      "${\\": 6534,
      "esh": 6535,
      "Ġdespite": 6536,
      "Ġattacks": 6537,
      "ĠGlobal": 6538,
      "PU": 6539,
      "Ġperspective": 6540,
      "Ġreactions": 6541,
      "Ġelectronic": 6542,
      "Ġpromote": 6543,
      "ĠWild": 6544,
      "ĠOper": 6545,
      "ĠVis": 6546,
      "Ġdangerous": 6547,
      "Ġfilled": 6548,
      "Ġedges": 6549,
      "icial": 6550,
      "!!": 6551,
      "vol": 6552,
      "ropical": 6553,
      "map": 6554,
      "Then": 6555,
      "Ġcolors": 6556,
      "Ġasym": 6557,
      "ĠIII": 6558,
      "ĠEngineering": 6559,
      "last": 6560,
      "Ġcast": 6561,
      "Ħ¤": 6562,
      "Ġchoices": 6563,
      "ĠCharles": 6564,
      "Ġdynamic": 6565,
      "Ġceleb": 6566,
      "ĠAst": 6567,
      "çĶ": 6568,
      "Ġleaving": 6569,
      "ulating": 6570,
      "Ġattached": 6571,
      "Ġstrongly": 6572,
      "cest": 6573,
      "aneous": 6574,
      "Ġpush": 6575,
      "Ġagreement": 6576,
      "Ġwhatever": 6577,
      "Ġhappened": 6578,
      "ĠKen": 6579,
      "*}": 6580,
      "Ġhole": 6581,
      "ĠOpt": 6582,
      "itage": 6583,
      "Ġviolence": 6584,
      "ticle": 6585,
      "Ġsituations": 6586,
      "Ġdynamics": 6587,
      "Ġadopted": 6588,
      "ĠLouis": 6589,
      "ao": 6590,
      "ĠAtt": 6591,
      "vals": 6592,
      "icular": 6593,
      "Ġfacts": 6594,
      "Ġ1996": 6595,
      "Ġhabitat": 6596,
      "ĠPeter": 6597,
      "Ġguarant": 6598,
      "Ġrecognized": 6599,
      "Ġtransformation": 6600,
      "Ġprincipal": 6601,
      "zen": 6602,
      "weight": 6603,
      "while": 6604,
      "Ġpump": 6605,
      "Ġlose": 6606,
      "Ġpaint": 6607,
      "Ġemergency": 6608,
      "Ġcategories": 6609,
      "Ġsymbols": 6610,
      "Ġproceed": 6611,
      "Ġcloud": 6612,
      "ĠEnvironmental": 6613,
      "Ġcompound": 6614,
      "Ġexpressions": 6615,
      "Ġlens": 6616,
      "Ġâī": 6617,
      "ĠAbout": 6618,
      "Ġdisk": 6619,
      "ĠVari": 6620,
      "Ġedited": 6621,
      "Ġmonitoring": 6622,
      "inction": 6623,
      "Ġsell": 6624,
      "Ġyellow": 6625,
      "Ġsed": 6626,
      "Ġeggs": 6627,
      "Ġtrust": 6628,
      "ĠWorks": 6629,
      "Ġacts": 6630,
      "rin": 6631,
      "ĠVirginia": 6632,
      "ih": 6633,
      "Ġtasks": 6634,
      "Def": 6635,
      "Ġtheories": 6636,
      "ĠChic": 6637,
      "Ġcert": 6638,
      "Ġdoubt": 6639,
      "Ġprem": 6640,
      "opic": 6641,
      "Ġcamera": 6642,
      "Ġembed": 6643,
      "Ġcryst": 6644,
      "pg": 6645,
      "Ġnations": 6646,
      "ĠInteg": 6647,
      "ĠDar": 6648,
      "Ġinterview": 6649,
      "Ġcloser": 6650,
      "Type": 6651,
      "Ġconc": 6652,
      "Ġflag": 6653,
      "Ġgrand": 6654,
      "Ġwife": 6655,
      "Ġmoves": 6656,
      "Ġgall": 6657,
      "Ġgarden": 6658,
      "ĠĠĠĠĠĠĠ": 6659,
      "Another": 6660,
      "Ġdomestic": 6661,
      "Ġpowers": 6662,
      "RI": 6663,
      "then": 6664,
      "åĲ": 6665,
      "omic": 6666,
      "Ġinteract": 6667,
      "'.": 6668,
      "Ġnav": 6669,
      "ĠRob": 6670,
      "Ġcomplicated": 6671,
      "Ġoptical": 6672,
      "ldots": 6673,
      "mic": 6674,
      "Ġ:=": 6675,
      "Ġproteins": 6676,
      "Ġconventional": 6677,
      "TML": 6678,
      "Ġtheoretical": 6679,
      "Ġstret": 6680,
      "values": 6681,
      "inux": 6682,
      "ingly": 6683,
      "ĠMont": 6684,
      "Ġsupposed": 6685,
      "Ġfacilities": 6686,
      "ĠHistor": 6687,
      "Ġnone": 6688,
      "ĠPoint": 6689,
      "Ġcalculations": 6690,
      "Ġtor": 6691,
      "Ġnotation": 6692,
      "Ġinstruction": 6693,
      "Ġupdate": 6694,
      "Ġdesired": 6695,
      "Ġregional": 6696,
      "Ġgod": 6697,
      "Ġ_{": 6698,
      "Ġexponential": 6699,
      "è¯": 6700,
      "Ġdrawn": 6701,
      "ano": 6702,
      "ademy": 6703,
      "ĠĠĠĠĠĠ": 6704,
      "ĠCarol": 6705,
      "ĠBet": 6706,
      "Ġleader": 6707,
      "Ġprocedures": 6708,
      "Ġsensitive": 6709,
      "hop": 6710,
      "Ġabstract": 6711,
      "ussian": 6712,
      "2009": 6713,
      "ĠAT": 6714,
      "ĠLife": 6715,
      "CE": 6716,
      "cor": 6717,
      "Ġimplemented": 6718,
      "Ġexcellent": 6719,
      "Ġallerg": 6720,
      "Ġgar": 6721,
      "Ġconsequences": 6722,
      "Ġcle": 6723,
      "Ġweap": 6724,
      "erves": 6725,
      "Ġvulner": 6726,
      "Sim": 6727,
      "ifications": 6728,
      "Ġtransmission": 6729,
      "Ġends": 6730,
      "mann": 6731,
      "ĠMathematical": 6732,
      "%)": 6733,
      "tan": 6734,
      "Ġpregnancy": 6735,
      "osph": 6736,
      "rical": 6737,
      "ĠSea": 6738,
      "Ġinstalled": 6739,
      "Ġconflict": 6740,
      "2008": 6741,
      "Ġmillions": 6742,
      "itt": 6743,
      "Ġteeth": 6744,
      "Ġflight": 6745,
      "herent": 6746,
      "itness": 6747,
      "Ġmamm": 6748,
      "ĠOcean": 6749,
      "iders": 6750,
      "Ġrail": 6751,
      "brid": 6752,
      "Ġgap": 6753,
      "angular": 6754,
      "Ġsubstance": 6755,
      "Ġimplies": 6756,
      "App": 6757,
      "Rec": 6758,
      "xx": 6759,
      "Ġexperienced": 6760,
      "Ġtaught": 6761,
      "Ġconfidence": 6762,
      "Ġbroken": 6763,
      "Ġoriginally": 6764,
      "nu": 6765,
      "Ġessentially": 6766,
      "\\;": 6767,
      "Ġconven": 6768,
      "Ġassumption": 6769,
      "ENT": 6770,
      "Ġhorm": 6771,
      "Ġexpensive": 6772,
      "Ġinjury": 6773,
      "Ġconfir": 6774,
      "Ġdetermin": 6775,
      "seud": 6776,
      "Ġforests": 6777,
      "Ġspend": 6778,
      "FT": 6779,
      "dt": 6780,
      "inition": 6781,
      "Ġproved": 6782,
      "ircraft": 6783,
      "Ġsurfaces": 6784,
      "Ġaccompl": 6785,
      "ship": 6786,
      "Ġremark": 6787,
      "Ġdistributions": 6788,
      "ogene": 6789,
      "Ġsurrounding": 6790,
      "Ġmodule": 6791,
      "ĠAdv": 6792,
      "abled": 6793,
      "Ġexport": 6794,
      "OP": 6795,
      "Ġsen": 6796,
      "lements": 6797,
      "ĠFrancis": 6798,
      "ĠAnswer": 6799,
      "eck": 6800,
      "Ġtraffic": 6801,
      "ĠFinally": 6802,
      "mas": 6803,
      "Ġsounds": 6804,
      "Ġoscill": 6805,
      "Ġtrac": 6806,
      "ĠTreat": 6807,
      "ĠIll": 6808,
      "ĠSimilar": 6809,
      "mid": 6810,
      "orous": 6811,
      "isp": 6812,
      "Ġages": 6813,
      "Ġdetection": 6814,
      "oking": 6815,
      "cule": 6816,
      "ĠFrank": 6817,
      "words": 6818,
      "Ġcharacteristic": 6819,
      "Ġrenew": 6820,
      "ĠCommittee": 6821,
      "Hz": 6822,
      "she": 6823,
      "ĠConference": 6824,
      "Ġconstructed": 6825,
      "Ġfocused": 6826,
      "erior": 6827,
      "conf": 6828,
      "Ġ67": 6829,
      "Of": 6830,
      "Ġliver": 6831,
      "Ġcorpor": 6832,
      "ĠStandard": 6833,
      "Ġsod": 6834,
      "Ġsong": 6835,
      "Ġenem": 6836,
      "Ġnaturally": 6837,
      "Ġstatements": 6838,
      "Col": 6839,
      "Ġplastic": 6840,
      "Ġ34": 6841,
      "FS": 6842,
      "opt": 6843,
      "Ġbehaviour": 6844,
      "plate": 6845,
      "Ġlaboratory": 6846,
      "Ġdepression": 6847,
      "Ġpropag": 6848,
      "Ġlists": 6849,
      "ĠDou": 6850,
      "ĠLake": 6851,
      "Ġ1994": 6852,
      "Ġped": 6853,
      ")|": 6854,
      "Ġsyndrome": 6855,
      "Ġproportion": 6856,
      "ĠRichard": 6857,
      "Ġmm": 6858,
      "Ġpollution": 6859,
      "Ġrotation": 6860,
      "Ġsuc": 6861,
      "ĠStudies": 6862,
      "ĠMiddle": 6863,
      "Ġgovernments": 6864,
      "ĠSec": 6865,
      "Ġseek": 6866,
      "ĠStr": 6867,
      "Ġkeeping": 6868,
      "]{": 6869,
      "sl": 6870,
      "Ġconj": 6871,
      "ĠZh": 6872,
      "Ġthousand": 6873,
      "Ġproducing": 6874,
      "Ġperp": 6875,
      "Ġcapable": 6876,
      "Ġdecide": 6877,
      "ĠColumb": 6878,
      "Ġworse": 6879,
      "Ġplaying": 6880,
      "ald": 6881,
      "ato": 6882,
      "Ġimmig": 6883,
      "ĠParis": 6884,
      "onymous": 6885,
      "ĠSoviet": 6886,
      "Or": 6887,
      "Ġextensive": 6888,
      "Ġlayers": 6889,
      "dden": 6890,
      "Ġfelt": 6891,
      "ĠBrown": 6892,
      "ĠMag": 6893,
      "Ġfeedback": 6894,
      "aud": 6895,
      "uses": 6896,
      "Ġbra": 6897,
      "Ġmeat": 6898,
      "Ġmanage": 6899,
      "mail": 6900,
      "Ġcardi": 6901,
      "Ġsupports": 6902,
      "ĠCompany": 6903,
      "Ġbranch": 6904,
      "burg": 6905,
      "prime": 6906,
      "gal": 6907,
      "aligned": 6908,
      "Ġfeeling": 6909,
      "open": 6910,
      "ĠWhere": 6911,
      "Ġprofession": 6912,
      "Ġvictim": 6913,
      "asp": 6914,
      "Ġhelping": 6915,
      "Ġpix": 6916,
      "ĠTw": 6917,
      "Ġacademic": 6918,
      "Ġtail": 6919,
      "non": 6920,
      "ili": 6921,
      "etime": 6922,
      "opes": 6923,
      "ĠViet": 6924,
      "Ġrac": 6925,
      "Ġ48": 6926,
      "hy": 6927,
      "rame": 6928,
      "ugg": 6929,
      "Ġarbitrary": 6930,
      "Ġfro": 6931,
      "bur": 6932,
      "Ġmanip": 6933,
      "Ġturb": 6934,
      "Ġinterests": 6935,
      "Stud": 6936,
      "Ġseeds": 6937,
      "120": 6938,
      "Bl": 6939,
      "ĠBre": 6940,
      "Ġvariance": 6941,
      "Ġcrops": 6942,
      "gra": 6943,
      "ĠToday": 6944,
      "Ġsettle": 6945,
      "Ġroutine": 6946,
      "];": 6947,
      "Ġ1000": 6948,
      "aks": 6949,
      "Ġagencies": 6950,
      "ropy": 6951,
      "kes": 6952,
      "Ġsick": 6953,
      "Ġcatch": 6954,
      "Ġpray": 6955,
      "Ġnest": 6956,
      "Ġcircumst": 6957,
      "PC": 6958,
      "SO": 6959,
      "organ": 6960,
      "Ġpil": 6961,
      "Ġreferences": 6962,
      "psi": 6963,
      "sor": 6964,
      "Ġcompounds": 6965,
      "Ġowners": 6966,
      "Ġbudget": 6967,
      "ĠKnow": 6968,
      "oids": 6969,
      "Ġsecondary": 6970,
      "Ġcorn": 6971,
      "Ġcrisis": 6972,
      "Ġraise": 6973,
      "Ġcomprehensive": 6974,
      "Ġlies": 6975,
      "Ġmechanical": 6976,
      "Ġordered": 6977,
      "Ġwalls": 6978,
      "Ġorb": 6979,
      "Ġshel": 6980,
      "flo": 6981,
      "Ġvertices": 6982,
      "Ġske": 6983,
      "Ġconsidering": 6984,
      "gov": 6985,
      "umes": 6986,
      "Ġdecade": 6987,
      "soft": 6988,
      "Ġsegment": 6989,
      "Data": 6990,
      "ibilities": 6991,
      "ricted": 6992,
      "Ġpublication": 6993,
      "Ġshif": 6994,
      "Ġsurvival": 6995,
      "ĠBur": 6996,
      "Ġknows": 6997,
      "label": 6998,
      "Ġdiscrete": 6999,
      "olars": 7000,
      "Ġmarine": 7001,
      "Ġpictures": 7002,
      "born": 7003,
      "à¤": 7004,
      "Ġlesson": 7005,
      "Ġresponsibility": 7006,
      "uilding": 7007,
      "fortunately": 7008,
      "Ġyouth": 7009,
      "Ġpossess": 7010,
      "ĠFlorida": 7011,
      "Ġdepos": 7012,
      "ĠJac": 7013,
      "->": 7014,
      "Cons": 7015,
      "May": 7016,
      "Ġversions": 7017,
      "di": 7018,
      "ĠView": 7019,
      "irt": 7020,
      "Ġsudden": 7021,
      "ĠVer": 7022,
      "BS": 7023,
      "Ġcontem": 7024,
      "Ġsettings": 7025,
      "Ġstability": 7026,
      "ective": 7027,
      "Thanks": 7028,
      "Sub": 7029,
      "ilton": 7030,
      "Ġstudying": 7031,
      ")$,": 7032,
      "ĠPan": 7033,
      "ĠFederal": 7034,
      "ĠUSA": 7035,
      "Ġinterpretation": 7036,
      "Ġapproximation": 7037,
      "Ġlaun": 7038,
      "Find": 7039,
      "rint": 7040,
      "Ġprison": 7041,
      "Ġnotion": 7042,
      "Ġdiscrim": 7043,
      "Ġfort": 7044,
      "Ġfunding": 7045,
      "otion": 7046,
      "ulin": 7047,
      "Ġvac": 7048,
      "Ġedition": 7049,
      "Ġaffects": 7050,
      "Ġwants": 7051,
      "ads": 7052,
      "Ġcenturies": 7053,
      "package": 7054,
      "Ġ00": 7055,
      "Ġdeviation": 7056,
      "Ġslowly": 7057,
      "Ġscan": 7058,
      "Ġdifficulty": 7059,
      "ĠCancer": 7060,
      "((": 7061,
      "lers": 7062,
      "init": 7063,
      "eries": 7064,
      "Ġancest": 7065,
      "ĠGood": 7066,
      "cher": 7067,
      "Ġdemonstrate": 7068,
      "neg": 7069,
      "vironments": 7070,
      "reshold": 7071,
      "fe": 7072,
      "zer": 7073,
      "elled": 7074,
      "Per": 7075,
      "aph": 7076,
      "110": 7077,
      "CT": 7078,
      "Ġpert": 7079,
      "Ġrecognize": 7080,
      "Ġconstraints": 7081,
      "Ġcomfort": 7082,
      "Be": 7083,
      "rey": 7084,
      "ĠWhich": 7085,
      "Ġ55": 7086,
      "2019": 7087,
      "Ġcreates": 7088,
      "Ġresponses": 7089,
      "RA": 7090,
      "Ġsimult": 7091,
      "Your": 7092,
      "ĠBritain": 7093,
      "ĠHenry": 7094,
      "ĠChicago": 7095,
      "ĠKh": 7096,
      "Ġcolleagues": 7097,
      "Ġdedic": 7098,
      "Ġcub": 7099,
      "ĠGiven": 7100,
      "iot": 7101,
      "ĠQuestions": 7102,
      "Ġenhance": 7103,
      "ĠEff": 7104,
      "American": 7105,
      "Ġtoler": 7106,
      "ums": 7107,
      "Ġvoice": 7108,
      "mp": 7109,
      "ucl": 7110,
      "Ġcorrel": 7111,
      "rants": 7112,
      "ellect": 7113,
      "uality": 7114,
      "Ret": 7115,
      "oln": 7116,
      "Ġoutcomes": 7117,
      "Ġsentence": 7118,
      "escription": 7119,
      "Ġcompetition": 7120,
      "Ġtiny": 7121,
      "Ġinfected": 7122,
      "Ġindicated": 7123,
      "Ġdecline": 7124,
      "Ġfle": 7125,
      "Ġswitch": 7126,
      "ĠÎ±": 7127,
      "Ġstone": 7128,
      "Ġappearance": 7129,
      "hma": 7130,
      "ĠDu": 7131,
      "Ġsubset": 7132,
      "ĠDisc": 7133,
      "Ġseeing": 7134,
      "ĠMoreover": 7135,
      "Ġtube": 7136,
      "}}{\\": 7137,
      "tenance": 7138,
      "Ġcart": 7139,
      "Ġ1970": 7140,
      "Ġgreatly": 7141,
      "ita": 7142,
      "urd": 7143,
      "Ġtrouble": 7144,
      "Ġbeam": 7145,
      "Ġcars": 7146,
      ")]": 7147,
      "}_{\\": 7148,
      "conn": 7149,
      "Ġtermin": 7150,
      "ĠHence": 7151,
      "Ġrural": 7152,
      "Ġplayers": 7153,
      "Ġalgebraic": 7154,
      "ĠMulti": 7155,
      "itter": 7156,
      "Ġdust": 7157,
      "istent": 7158,
      "Ġdeaths": 7159,
      "acent": 7160,
      "Ġopening": 7161,
      "Ġfont": 7162,
      "ĠNetwork": 7163,
      "PL": 7164,
      "Ġintegrated": 7165,
      "ĠOrig": 7166,
      "ĠDoes": 7167,
      "Ġvertex": 7168,
      "ĠSaf": 7169,
      "Ġstick": 7170,
      "Ġreasonable": 7171,
      "Ġrevealed": 7172,
      "esity": 7173,
      "Ġvote": 7174,
      "Ġdrawing": 7175,
      "alian": 7176,
      "ett": 7177,
      "Ġassigned": 7178,
      "Ġresidents": 7179,
      "ĠProfessor": 7180,
      "ĠCommon": 7181,
      "rine": 7182,
      "ĠAccess": 7183,
      "Ġspecify": 7184,
      "Ġ120": 7185,
      "Ġatomic": 7186,
      "Ġdrinking": 7187,
      "Ġwait": 7188,
      "Ġgrown": 7189,
      "Ġadvoc": 7190,
      "Ġprevention": 7191,
      "Ġneighb": 7192,
      ")}{": 7193,
      "sis": 7194,
      "Ġmeters": 7195,
      "âī": 7196,
      "lib": 7197,
      "ĠDifferent": 7198,
      "ĠZe": 7199,
      "Ġsan": 7200,
      "ĠPage": 7201,
      "ĠWomen": 7202,
      "agraph": 7203,
      "Ġsky": 7204,
      "[\\": 7205,
      "Ġcarefully": 7206,
      "Ġmarried": 7207,
      "ĠAcademy": 7208,
      "fish": 7209,
      "Pub": 7210,
      "Ġdoctors": 7211,
      "Ġadequ": 7212,
      "cyclopedia": 7213,
      "ameters": 7214,
      "Ġgirls": 7215,
      "Ġ37": 7216,
      "riculum": 7217,
      "Ġcontrols": 7218,
      "ĠBank": 7219,
      "Ġshad": 7220,
      "Ġdriving": 7221,
      "Ġdoor": 7222,
      "Ġphr": 7223,
      "ĠMain": 7224,
      "ĠPsych": 7225,
      "anda": 7226,
      "Ġ62": 7227,
      "Ġthor": 7228,
      "Ġvaluable": 7229,
      "ĠAdminist": 7230,
      "Ġasking": 7231,
      "Ġneural": 7232,
      "ĠMake": 7233,
      "ÂłÂłÂłÂłÂłÂłÂłÂł": 7234,
      "Ġclassification": 7235,
      "ĠAND": 7236,
      "pass": 7237,
      "Ġfly": 7238,
      "Ġfell": 7239,
      "irector": 7240,
      "Ġfewer": 7241,
      "Ġwavelength": 7242,
      "ĠNat": 7243,
      "rained": 7244,
      "ĠGeorg": 7245,
      "\"\"": 7246,
      "Ġaccum": 7247,
      "ĠSouthern": 7248,
      "ĠRights": 7249,
      "Ġcalcium": 7250,
      "elihood": 7251,
      "ĠCH": 7252,
      "Ġhearing": 7253,
      "ĠLeg": 7254,
      "ĠPop": 7255,
      "oster": 7256,
      "IA": 7257,
      "just": 7258,
      "Ġtag": 7259,
      "Ġremote": 7260,
      "Ġupdated": 7261,
      "ĠGold": 7262,
      "%%": 7263,
      "wer": 7264,
      "2006": 7265,
      "Ġharvest": 7266,
      "cribed": 7267,
      "Ġsucceed": 7268,
      "cription": 7269,
      "ificial": 7270,
      "%.": 7271,
      "Yes": 7272,
      "ulas": 7273,
      "ĠFour": 7274,
      "Ġassistance": 7275,
      "aneously": 7276,
      "ÏĢ": 7277,
      "Ġgone": 7278,
      "ĠEnd": 7279,
      "Ġouter": 7280,
      "Ġcrop": 7281,
      "ceived": 7282,
      "Ġdecay": 7283,
      "ployment": 7284,
      "chron": 7285,
      "Ġmachines": 7286,
      "Ġmoist": 7287,
      "Ġrein": 7288,
      "Ġexception": 7289,
      "Ġaircraft": 7290,
      "Ġscores": 7291,
      "Ġdefic": 7292,
      "\":": 7293,
      "Ġtal": 7294,
      "hist": 7295,
      "Ġjump": 7296,
      "Ġextend": 7297,
      "uous": 7298,
      "ĠTor": 7299,
      "Ġfourth": 7300,
      "ĠTimes": 7301,
      "ĠSing": 7302,
      "Ġvan": 7303,
      "sts": 7304,
      "Ġdistrict": 7305,
      "Ġdioxide": 7306,
      "IDS": 7307,
      "Ġphone": 7308,
      "ĠSpecial": 7309,
      "ye": 7310,
      "ĠSearch": 7311,
      "Ġinstructions": 7312,
      "Ġinstitution": 7313,
      "Ġlots": 7314,
      "quare": 7315,
      "Ġcurves": 7316,
      "Ġdiversity": 7317,
      "Ġbear": 7318,
      "Ġju": 7319,
      "opyright": 7320,
      "rec": 7321,
      "Ġorth": 7322,
      "ĠDynam": 7323,
      "Ġprecision": 7324,
      "Ġagriculture": 7325,
      "ĠMartin": 7326,
      "Sp": 7327,
      "obe": 7328,
      "Ġdivide": 7329,
      "kins": 7330,
      "Ġpip": 7331,
      "Ġconclusion": 7332,
      "Ġlocations": 7333,
      "åŃ": 7334,
      "Ġbeautiful": 7335,
      "Ġbin": 7336,
      "Ġarchitecture": 7337,
      "Ġpassing": 7338,
      "Ġincreasingly": 7339,
      "lete": 7340,
      "Ġstages": 7341,
      "Ġarrange": 7342,
      "ĠAlgebra": 7343,
      "Ġrows": 7344,
      "Mod": 7345,
      "Ġrid": 7346,
      "ĠNations": 7347,
      "During": 7348,
      "FF": 7349,
      "Ġ42": 7350,
      "ĠStatistics": 7351,
      "Ġadministration": 7352,
      "power": 7353,
      "Ġwasn": 7354,
      "Ġcapture": 7355,
      "pes": 7356,
      "ĠCy": 7357,
      "Ġinsp": 7358,
      "isters": 7359,
      "Ġneur": 7360,
      "Ġdemonstrated": 7361,
      "Page": 7362,
      "Ġdogs": 7363,
      "ĠServices": 7364,
      "Ġwel": 7365,
      "everal": 7366,
      "anta": 7367,
      "Ġaccounts": 7368,
      "Ġhem": 7369,
      "ĠAgricult": 7370,
      "ĠKey": 7371,
      "Ġstroke": 7372,
      "2007": 7373,
      "ĠRussia": 7374,
      "Supp": 7375,
      "ether": 7376,
      "ĠLib": 7377,
      "Ġbutton": 7378,
      "ĠIP": 7379,
      "Ġtrials": 7380,
      "ĠKore": 7381,
      "ĠYes": 7382,
      "edge": 7383,
      "ĠDO": 7384,
      "ibraries": 7385,
      "Ġclock": 7386,
      "ĠGuide": 7387,
      "Ġcommands": 7388,
      "Ġregist": 7389,
      "Â®": 7390,
      "Ġenable": 7391,
      "Ġinstruments": 7392,
      "ĠThose": 7393,
      "Ġcomposed": 7394,
      "Ġ150": 7395,
      "Ġmedication": 7396,
      "Ġoptimization": 7397,
      "ba": 7398,
      "vial": 7399,
      "real": 7400,
      "Ġdefinitions": 7401,
      "Ġing": 7402,
      "inuous": 7403,
      "Ġmountain": 7404,
      "LS": 7405,
      "dots": 7406,
      "Ġcriteria": 7407,
      "Ġordinary": 7408,
      "ena": 7409,
      "Ġpool": 7410,
      "Ġbuff": 7411,
      "Ġidentical": 7412,
      "Ġintroduce": 7413,
      "Ġhorse": 7414,
      "Ġfairly": 7415,
      "Ġsecure": 7416,
      "Ġunus": 7417,
      "ayer": 7418,
      "Ġ44": 7419,
      "Ġanalys": 7420,
      "Ġimprovement": 7421,
      "Ġdut": 7422,
      "ĠCare": 7423,
      "ĠRE": 7424,
      "Ġgradient": 7425,
      "ĠProv": 7426,
      "zym": 7427,
      "Ġiter": 7428,
      "coming": 7429,
      "Ġreader": 7430,
      "Ġimpacts": 7431,
      "lines": 7432,
      "ĠMember": 7433,
      "Ġenvironments": 7434,
      "Ġmechanisms": 7435,
      "ston": 7436,
      "igation": 7437,
      "Ġinvari": 7438,
      "ĠQue": 7439,
      "Ġexamine": 7440,
      "Add": 7441,
      "Ġcrow": 7442,
      "ĠJohns": 7443,
      "Ġspatial": 7444,
      "Ġdecom": 7445,
      "Ġkin": 7446,
      "Ġswit": 7447,
      "Ġmic": 7448,
      "Ġguidelines": 7449,
      "Ġsuccessfully": 7450,
      "Ġsoldiers": 7451,
      "ĠWord": 7452,
      "apse": 7453,
      "Ġzone": 7454,
      "Ġpredicted": 7455,
      "HD": 7456,
      "Î»": 7457,
      "Ġopened": 7458,
      "ĠIntroduction": 7459,
      "ĠDesign": 7460,
      "Ġprotected": 7461,
      "CM": 7462,
      "rot": 7463,
      "ĠDown": 7464,
      "ĠYet": 7465,
      "\\{": 7466,
      "Ġhouses": 7467,
      "idents": 7468,
      "ĠCambridge": 7469,
      "fs": 7470,
      "Ġquantities": 7471,
      "Ġbio": 7472,
      "âĢĭ": 7473,
      "Ġsampling": 7474,
      ".|": 7475,
      "eness": 7476,
      "Ġmolecule": 7477,
      "æĺ¯": 7478,
      "ĠColor": 7479,
      "ĠOnline": 7480,
      "QL": 7481,
      "Ġdeliver": 7482,
      "ĠWood": 7483,
      "irty": 7484,
      "Ġminimal": 7485,
      "Ġvirtual": 7486,
      "Ġcognitive": 7487,
      "Ġbits": 7488,
      "ups": 7489,
      "Ġarter": 7490,
      "Ġconvex": 7491,
      "graph": 7492,
      "Ġ=>": 7493,
      "Ġforecast": 7494,
      "Ġrecip": 7495,
      "Ġorg": 7496,
      "throp": 7497,
      "Ġpig": 7498,
      "rastructure": 7499,
      "2005": 7500,
      "Ġprompt": 7501,
      "ĠAbstract": 7502,
      "inn": 7503,
      "Ġmobile": 7504,
      "uh": 7505,
      "Ġmi": 7506,
      "ication": 7507,
      "Ġintensity": 7508,
      "Ġcircul": 7509,
      "âĤ": 7510,
      "ĠBoard": 7511,
      "Ġuniversal": 7512,
      "Ġpermanent": 7513,
      "Ġgender": 7514,
      "antly": 7515,
      "Ġclar": 7516,
      "ĠLevel": 7517,
      "Ġawareness": 7518,
      "Ġcareer": 7519,
      "Ġmechanics": 7520,
      "Sc": 7521,
      "ĠSk": 7522,
      "2000": 7523,
      "aired": 7524,
      "|\\": 7525,
      "Ġ43": 7526,
      "Ġdebt": 7527,
      "ĠSolutions": 7528,
      "isk": 7529,
      "Ġ(\"": 7530,
      "Ġmanaged": 7531,
      "Ġvegetables": 7532,
      "ĠJava": 7533,
      "ĠConstitution": 7534,
      "Ġobserve": 7535,
      "Ġpolice": 7536,
      "Ġdataset": 7537,
      "Ġspeaking": 7538,
      "Ġmessages": 7539,
      ")=\\": 7540,
      "Pe": 7541,
      "ĠAR": 7542,
      "ura": 7543,
      "Ġcards": 7544,
      "Ġsolved": 7545,
      "Ġmagnet": 7546,
      "ĠRef": 7547,
      "uns": 7548,
      "Ġimmediate": 7549,
      "ĠSeries": 7550,
      "Mat": 7551,
      "Ġ46": 7552,
      "Ġworldwide": 7553,
      "sey": 7554,
      "Ġdetected": 7555,
      "Ġconference": 7556,
      "Ġlie": 7557,
      "Ġoccasion": 7558,
      "ypes": 7559,
      "CN": 7560,
      "Dr": 7561,
      "Part": 7562,
      "lets": 7563,
      "Ġmixture": 7564,
      "Out": 7565,
      "des": 7566,
      "Ġsharing": 7567,
      "Ġvehicles": 7568,
      "Ġfacilit": 7569,
      "Ġmultiplication": 7570,
      "Ġhunt": 7571,
      "you": 7572,
      "Ġdiagonal": 7573,
      "ĠCamp": 7574,
      "ĠQuant": 7575,
      "Ġmeth": 7576,
      "aylor": 7577,
      "Ġque": 7578,
      "Ġ400": 7579,
      "Ġdebate": 7580,
      "ĠCurrent": 7581,
      "zero": 7582,
      "Ġcomputation": 7583,
      "incoln": 7584,
      "Ġemployed": 7585,
      "Ġkernel": 7586,
      "Ġeastern": 7587,
      "Ġmicrosc": 7588,
      "esian": 7589,
      "ĠPolic": 7590,
      "Ġacceleration": 7591,
      "ĠDisease": 7592,
      "Ġusage": 7593,
      "Ġoutcome": 7594,
      "atively": 7595,
      "ĠYear": 7596,
      "Ġflows": 7597,
      ".-": 7598,
      "Ġmit": 7599,
      "ĠCap": 7600,
      "/(": 7601,
      "langle": 7602,
      "ĠResources": 7603,
      "Read": 7604,
      "cut": 7605,
      "Ġconvergence": 7606,
      "Ġfossil": 7607,
      "indu": 7608,
      "ĠFurthermore": 7609,
      "ĠSign": 7610,
      "2017": 7611,
      "Ġorganized": 7612,
      "azine": 7613,
      "Ġmapping": 7614,
      "ĠProp": 7615,
      "omach": 7616,
      "Ġpresentation": 7617,
      "Ġlowest": 7618,
      "Ġhaven": 7619,
      "Ġconcrete": 7620,
      "oved": 7621,
      "ounter": 7622,
      "ribution": 7623,
      "including": 7624,
      "ĠNC": 7625,
      "Ġagents": 7626,
      "Ġtranslation": 7627,
      "oned": 7628,
      "ella": 7629,
      "Ġdiver": 7630,
      "ymph": 7631,
      "ĠProblem": 7632,
      "ĠMa": 7633,
      "Ġarms": 7634,
      "Ġnewsp": 7635,
      "Ġcentre": 7636,
      "Because": 7637,
      "ĠCanadian": 7638,
      "ĠFund": 7639,
      "Ġ2021": 7640,
      "venue": 7641,
      "Cal": 7642,
      "Ġleaf": 7643,
      "Ġmovements": 7644,
      "osh": 7645,
      "Ġapplying": 7646,
      "Ġseemed": 7647,
      "Ġahead": 7648,
      "olester": 7649,
      "ĠProb": 7650,
      "ĠScott": 7651,
      "Ge": 7652,
      "Ġepid": 7653,
      "romagnetic": 7654,
      "oded": 7655,
      "Ġcontribution": 7656,
      "cap": 7657,
      "Ġnine": 7658,
      "ĠMad": 7659,
      "ascular": 7660,
      "2015": 7661,
      "PR": 7662,
      "ureau": 7663,
      "Ġunable": 7664,
      "Ġraw": 7665,
      "Ġexplo": 7666,
      "user": 7667,
      "Ġcav": 7668,
      "ĠObs": 7669,
      "Ġphilosophy": 7670,
      "Ġblow": 7671,
      "irds": 7672,
      "ĠWikipedia": 7673,
      "2018": 7674,
      "Ġdigits": 7675,
      "bling": 7676,
      ".'": 7677,
      "Ġimmun": 7678,
      "Ġcritic": 7679,
      "ithmetic": 7680,
      "Ġtips": 7681,
      "Ġcyl": 7682,
      "Ġshut": 7683,
      "Ġconnections": 7684,
      "onia": 7685,
      "Ġorganisms": 7686,
      "Ġpaths": 7687,
      "ĠOhio": 7688,
      "nings": 7689,
      "Ġmembran": 7690,
      "________________": 7691,
      "Ġpanel": 7692,
      "Ġcoff": 7693,
      "Ġassociation": 7694,
      "Cur": 7695,
      "rovers": 7696,
      "ĠCross": 7697,
      "Ġtwenty": 7698,
      "Ġtumor": 7699,
      "umn": 7700,
      "Ġimper": 7701,
      "Ġsizes": 7702,
      "Ġneuro": 7703,
      "ohn": 7704,
      "Ġlandscape": 7705,
      "Ġtank": 7706,
      "Ġban": 7707,
      "Ġposts": 7708,
      "Ġimproving": 7709,
      "Ġdin": 7710,
      "ounded": 7711,
      "Joined": 7712,
      "Ġmaxim": 7713,
      "Ġtouch": 7714,
      "ĠBible": 7715,
      "Ġroughly": 7716,
      "heast": 7717,
      "eper": 7718,
      "ude": 7719,
      "Ġtables": 7720,
      "Pre": 7721,
      "Ġstead": 7722,
      "Ġ54": 7723,
      "Ġ41": 7724,
      "Ġhousehold": 7725,
      "Ġtroops": 7726,
      "ĠVolume": 7727,
      "raining": 7728,
      "Ġstands": 7729,
      "uels": 7730,
      "Ġalle": 7731,
      "Ġ1960": 7732,
      "Man": 7733,
      "Ġfract": 7734,
      "Ġjoined": 7735,
      "Ġcircumstances": 7736,
      "lder": 7737,
      "Ġreprodu": 7738,
      "umps": 7739,
      "MA": 7740,
      "2016": 7741,
      "geq": 7742,
      "Ġreaders": 7743,
      "Ġvillage": 7744,
      "å°": 7745,
      "Ġcharged": 7746,
      "Ġcrucial": 7747,
      "Ġsulf": 7748,
      "Ġpron": 7749,
      "Ġphotograph": 7750,
      "Ġagent": 7751,
      "Ġassert": 7752,
      "Ġsubsequent": 7753,
      "Ġforth": 7754,
      "Ġseparated": 7755,
      "Ġinequality": 7756,
      "Ġintellect": 7757,
      "Eng": 7758,
      "Ġcourses": 7759,
      "Ġjoin": 7760,
      "Ġagency": 7761,
      "Ġdirections": 7762,
      "step": 7763,
      "2020": 7764,
      "ĠCheck": 7765,
      "CS": 7766,
      "ĠCode": 7767,
      "abric": 7768,
      "Ġdocumentation": 7769,
      "Ġtangent": 7770,
      "source": 7771,
      "Ġ1993": 7772,
      "earchers": 7773,
      "teen": 7774,
      "Ġrub": 7775,
      "ĠNOT": 7776,
      "elescope": 7777,
      "ĠLim": 7778,
      "Ġsupplement": 7779,
      "Ġconversion": 7780,
      "TH": 7781,
      "}}}}": 7782,
      "Ġpy": 7783,
      "ĠNorthern": 7784,
      "ictor": 7785,
      "ĠRevolution": 7786,
      "Ġvolunte": 7787,
      "oston": 7788,
      "Ġdispl": 7789,
      "ĠSurvey": 7790,
      "EX": 7791,
      "agers": 7792,
      "Ġplays": 7793,
      "Ġcluster": 7794,
      "ĠSpe": 7795,
      "ipping": 7796,
      "uler": 7797,
      "ĠSuper": 7798,
      "Ġbattery": 7799,
      "Ġcorner": 7800,
      "UTC": 7801,
      "Ġthrow": 7802,
      "ĠMach": 7803,
      "ĠFre": 7804,
      "ĠLaboratory": 7805,
      "Omega": 7806,
      "Ġinvent": 7807,
      "mediate": 7808,
      "Ġminute": 7809,
      "Ġrecovery": 7810,
      "dot": 7811,
      "âĶ": 7812,
      "ĠAcc": 7813,
      "iral": 7814,
      "Ġsurve": 7815,
      "hips": 7816,
      "page": 7817,
      "ani": 7818,
      "Ġcalling": 7819,
      "Ġmetab": 7820,
      "Ġprecisely": 7821,
      "Ġmorph": 7822,
      "osion": 7823,
      "Ġgreenhouse": 7824,
      "Ġadministr": 7825,
      "roups": 7826,
      "charge": 7827,
      "Ġgenerator": 7828,
      "ĠHu": 7829,
      "iem": 7830,
      "Ġchildhood": 7831,
      "ette": 7832,
      "Ġmild": 7833,
      "ĠLab": 7834,
      "Ġvariations": 7835,
      "ĠAustralian": 7836,
      "Ġdollars": 7837,
      "ĠItaly": 7838,
      "Ġsigned": 7839,
      "Ġmaintenance": 7840,
      "ĠMS": 7841,
      "phone": 7842,
      "Ġresulted": 7843,
      "Ġphotos": 7844,
      "Ġdeer": 7845,
      "Ġcycl": 7846,
      "Ġ38": 7847,
      "Ġpreced": 7848,
      "Ġ53": 7849,
      "Ġdestroyed": 7850,
      "craft": 7851,
      "lishing": 7852,
      "actic": 7853,
      "Ġdiscipl": 7854,
      "Ġ95": 7855,
      "Ġnonlinear": 7856,
      "Ġmuscles": 7857,
      "Ġprinted": 7858,
      "Posts": 7859,
      "div": 7860,
      "nab": 7861,
      "Ġobst": 7862,
      "usepackage": 7863,
      "Ġdense": 7864,
      "Ġsurvive": 7865,
      "ativity": 7866,
      "utation": 7867,
      "ĠPot": 7868,
      "Get": 7869,
      "Ġfer": 7870,
      "Ġthreshold": 7871,
      "Ġequally": 7872,
      "Ġprepare": 7873,
      "Ġtutorial": 7874,
      "Ġgather": 7875,
      "Ġsimulations": 7876,
      "Ġhardware": 7877,
      "Ġweights": 7878,
      "Ġsymmetric": 7879,
      "Name": 7880,
      "Ġbounded": 7881,
      "Ġsatellite": 7882,
      "ĠDC": 7883,
      "Ġinflamm": 7884,
      "ãĤ": 7885,
      "Ġlaser": 7886,
      "Ġreduces": 7887,
      "Ġvessels": 7888,
      "Ġplug": 7889,
      "Ġcomplement": 7890,
      "Ġdirected": 7891,
      "Ġabsence": 7892,
      "Ġ\\,": 7893,
      "âĢ²": 7894,
      "Ġcovers": 7895,
      "Ġwildlife": 7896,
      "Ġadm": 7897,
      "itionally": 7898,
      "ĠHaw": 7899,
      "Ġcontents": 7900,
      "ĠAuthor": 7901,
      "Ġbones": 7902,
      "Ġrecept": 7903,
      "operation": 7904,
      "Ġabuse": 7905,
      "Ġpartition": 7906,
      "ften": 7907,
      "subset": 7908,
      "Ġneutral": 7909,
      "Ġtempor": 7910,
      "Ġphenomenon": 7911,
      "inking": 7912,
      "Ġposted": 7913,
      "Ġlands": 7914,
      "Ġfiber": 7915,
      "ĠCarolina": 7916,
      "sen": 7917,
      "psilon": 7918,
      "Ġmatters": 7919,
      "ĠTr": 7920,
      "Ġunion": 7921,
      "Ġpm": 7922,
      "DS": 7923,
      "ĠCat": 7924,
      "Ġran": 7925,
      "Ġcolour": 7926,
      "Ġ1992": 7927,
      "Over": 7928,
      "Using": 7929,
      "Ġsession": 7930,
      "ĠChange": 7931,
      "Ġmarriage": 7932,
      "ĠConn": 7933,
      "ĠPoly": 7934,
      "Ġcomputed": 7935,
      "Ġradical": 7936,
      "Ġlogical": 7937,
      "iate": 7938,
      "Ġinher": 7939,
      "zil": 7940,
      "Ġinhib": 7941,
      "Ġalign": 7942,
      "Ġalter": 7943,
      "Ġspending": 7944,
      "Ġhybrid": 7945,
      "ĠNO": 7946,
      "Ġinfrastructure": 7947,
      "ĠComputer": 7948,
      "Ġ79": 7949,
      "Ġentered": 7950,
      "Ġmeasuring": 7951,
      "ican": 7952,
      "ĠHoly": 7953,
      "ollowing": 7954,
      "Ġnur": 7955,
      "gon": 7956,
      "Ġstrings": 7957,
      "Ġaccident": 7958,
      "Ġsteel": 7959,
      "omal": 7960,
      "Ġtrained": 7961,
      "etics": 7962,
      "aked": 7963,
      "Ġconscious": 7964,
      "?âĢĿ": 7965,
      "Ġtight": 7966,
      "ĠKar": 7967,
      "uals": 7968,
      "Ġarrived": 7969,
      "ĠThree": 7970,
      "rypt": 7971,
      "Ġassumptions": 7972,
      "Ġfounded": 7973,
      "Ġrecognition": 7974,
      "ĠDemoc": 7975,
      "ĠâĦ¤": 7976,
      "Ġirre": 7977,
      "Ġchemistry": 7978,
      "Ġmoral": 7979,
      "Ã¢": 7980,
      "etary": 7981,
      "Ġacknow": 7982,
      "Ġcoastal": 7983,
      "Ġdx": 7984,
      "Ġamb": 7985,
      "Ġviewed": 7986,
      "Ġputting": 7987,
      "Ġattempts": 7988,
      "BM": 7989,
      "riers": 7990,
      "Ġmerely": 7991,
      "Ġmir": 7992,
      "opl": 7993,
      "ĠJeff": 7994,
      "overline": 7995,
      "ĠSem": 7996,
      "Ġshock": 7997,
      "Ã¤": 7998,
      "Ġbow": 7999,
      "Right": 8000,
      "heet": 8001,
      "itory": 8002,
      "ĠStreet": 8003,
      "Ġfruits": 8004,
      "hered": 8005,
      "Ġ(-": 8006,
      "Ġuniversity": 8007,
      "Ġnearby": 8008,
      "Ġpuzz": 8009,
      "Ġregul": 8010,
      "Ġaqu": 8011,
      "icate": 8012,
      "umbers": 8013,
      "Ġpreval": 8014,
      "ĠEquations": 8015,
      "ĠForest": 8016,
      "Ġsheet": 8017,
      "press": 8018,
      "Ġshot": 8019,
      "ala": 8020,
      "Ġmarkets": 8021,
      "ĠGraph": 8022,
      "Ġrelax": 8023,
      "iology": 8024,
      "Ġpromin": 8025,
      "ĠMel": 8026,
      "Ġconsumers": 8027,
      "Ġmyself": 8028,
      "Ġemotional": 8029,
      "zy": 8030,
      "Î¸": 8031,
      "3934": 8032,
      "Ġscholars": 8033,
      "phant": 8034,
      "Ġdiverse": 8035,
      "Ġlessons": 8036,
      "idity": 8037,
      "Ġstatic": 8038,
      "Ġreef": 8039,
      "ĠIran": 8040,
      "Ġcandidate": 8041,
      "itled": 8042,
      "Ġdream": 8043,
      "Ġwilling": 8044,
      "ĠIndust": 8045,
      "ĠLincoln": 8046,
      "index": 8047,
      "theless": 8048,
      "ĠSpain": 8049,
      "Ġconserv": 8050,
      "Ġhyd": 8051,
      "Ġcareful": 8052,
      "Med": 8053,
      "Ġedit": 8054,
      "ochastic": 8055,
      "pol": 8056,
      "vard": 8057,
      "Ġera": 8058,
      "Ġprofit": 8059,
      "dc": 8060,
      "Ġpseud": 8061,
      "2003": 8062,
      "anes": 8063,
      "ĠJo": 8064,
      "300": 8065,
      "RL": 8066,
      "Ġborder": 8067,
      "ĠFort": 8068,
      "Ġ39": 8069,
      "Ġsupplies": 8070,
      ",,,,": 8071,
      "Me": 8072,
      "TC": 8073,
      "}(\\": 8074,
      "Ġstomach": 8075,
      ")^{": 8076,
      "tr": 8077,
      "Ġchlor": 8078,
      "Ġdepartment": 8079,
      "Ġdescript": 8080,
      "ĠJacob": 8081,
      "EP": 8082,
      "claim": 8083,
      "Ġfinds": 8084,
      "ERT": 8085,
      "Ġsemi": 8086,
      "Ġsports": 8087,
      "Ġagreed": 8088,
      "Ġleadership": 8089,
      "Ġinvestigate": 8090,
      "Time": 8091,
      "stone": 8092,
      "itational": 8093,
      "ĠTri": 8094,
      "Ġconcerning": 8095,
      "sage": 8096,
      "ĠHave": 8097,
      "Ġdepart": 8098,
      "Ġadds": 8099,
      "ĠNewton": 8100,
      "Also": 8101,
      "ĠConsider": 8102,
      "Up": 8103,
      "ĠDen": 8104,
      "Ġpresents": 8105,
      "det": 8106,
      "Ġyields": 8107,
      "Ġcontributions": 8108,
      "Ġyounger": 8109,
      "Ġsubstances": 8110,
      "ĠRock": 8111,
      "Ġdisturb": 8112,
      "ĠScholar": 8113,
      "Ġingred": 8114,
      "draw": 8115,
      "ĠNa": 8116,
      "Ġopposed": 8117,
      "oom": 8118,
      "æĸ": 8119,
      "Ġbanks": 8120,
      "ĠNext": 8121,
      "2014": 8122,
      "Ġsyntax": 8123,
      "vector": 8124,
      "illa": 8125,
      "Ġfever": 8126,
      "odynam": 8127,
      "ostic": 8128,
      "Example": 8129,
      "clusive": 8130,
      "ĠAgency": 8131,
      "Aut": 8132,
      "Reg": 8133,
      "orry": 8134,
      "ometer": 8135,
      "ĠLast": 8136,
      "Ġprediction": 8137,
      "Ġaward": 8138,
      "Ġplain": 8139,
      "ATION": 8140,
      "Table": 8141,
      "imeter": 8142,
      "inson": 8143,
      "Ġstructural": 8144,
      "aska": 8145,
      "ĠArea": 8146,
      "olesterol": 8147,
      "Ġrealize": 8148,
      "apped": 8149,
      "ĠMaterial": 8150,
      "ĠHig": 8151,
      "Ġwitness": 8152,
      "Ġstanding": 8153,
      "ĠHelp": 8154,
      "rice": 8155,
      "Ġrepresenting": 8156,
      "Ġsignificance": 8157,
      "cdots": 8158,
      "Ġsmoke": 8159,
      "2004": 8160,
      "Ġescape": 8161,
      "code": 8162,
      "Ġcenters": 8163,
      "Ġregularly": 8164,
      "icians": 8165,
      "ĠLow": 8166,
      "Ġorders": 8167,
      "Ġearthqu": 8168,
      "Ġintu": 8169,
      "ĠSecret": 8170,
      "Ġbrown": 8171,
      "Ġmice": 8172,
      "Ġhappy": 8173,
      "Ġasthma": 8174,
      "IF": 8175,
      "Ġnull": 8176,
      "ĠProcess": 8177,
      "Ġprofile": 8178,
      "ĠSat": 8179,
      "ĠBack": 8180,
      "ĠClimate": 8181,
      "Ġroute": 8182,
      "{(": 8183,
      "ĠRome": 8184,
      "mes": 8185,
      "oir": 8186,
      "Ġvital": 8187,
      "ĠOxford": 8188,
      "bles": 8189,
      "Ġmuseum": 8190,
      "Ġgram": 8191,
      "ĠLu": 8192,
      "Return": 8193,
      "Ġattend": 8194,
      "Ġoxidation": 8195,
      "Ġholes": 8196,
      "Ġultimately": 8197,
      "Ġreverse": 8198,
      "Ġended": 8199,
      "mers": 8200,
      "Ġantic": 8201,
      "Ġsphere": 8202,
      "Ġconcentrations": 8203,
      "Ġsupporting": 8204,
      "ĠAtlantic": 8205,
      "Ġprev": 8206,
      "Ġbigger": 8207,
      "Ġconstitution": 8208,
      "ĠBern": 8209,
      "Ġjustice": 8210,
      "Ġmetals": 8211,
      "Ġutility": 8212,
      "ĠAmong": 8213,
      "~~": 8214,
      "Ġdaughter": 8215,
      "ĠThrough": 8216,
      "ĠSolution": 8217,
      "ĠDig": 8218,
      "ductor": 8219,
      "Ġinputs": 8220,
      "agon": 8221,
      "ĠÂ©": 8222,
      "Ġdrought": 8223,
      "ĠEastern": 8224,
      "parent": 8225,
      "Ġ''": 8226,
      "Ġcontamin": 8227,
      "ools": 8228,
      "ĠEncyclopedia": 8229,
      "Ġethnic": 8230,
      "operator": 8231,
      "Ġimplications": 8232,
      "Ġsubsc": 8233,
      "Ġinstruct": 8234,
      "Ġmyth": 8235,
      "Ġthoughts": 8236,
      "Any": 8237,
      "Ġparagraph": 8238,
      "ylvan": 8239,
      "Ġscenario": 8240,
      "Ġparties": 8241,
      "ĠStart": 8242,
      "Ġlikelihood": 8243,
      "td": 8244,
      "ĠBC": 8245,
      "ĠLew": 8246,
      "Ġwouldn": 8247,
      "Ġnutrients": 8248,
      "bing": 8249,
      "Ġhal": 8250,
      "ĠMean": 8251,
      "Ġsurprising": 8252,
      "also": 8253,
      "ĠTake": 8254,
      "Ġentries": 8255,
      "Ġbeliefs": 8256,
      "ĠMer": 8257,
      "ĠBoston": 8258,
      "ading": 8259,
      "Ġsummary": 8260,
      "Ġgeometric": 8261,
      "Ġneighborhood": 8262,
      "Ġfoundation": 8263,
      "Ġtruly": 8264,
      "Ġlegs": 8265,
      "attice": 8266,
      "Ġparticipate": 8267,
      "Ġislands": 8268,
      "ighter": 8269,
      "2001": 8270,
      "wing": 8271,
      "ĠPass": 8272,
      "ĠBal": 8273,
      "Ġdecimal": 8274,
      "Ġstack": 8275,
      "'(": 8276,
      "dy": 8277,
      "ä¹": 8278,
      "Ġclient": 8279,
      "Ġflowers": 8280,
      "%,": 8281,
      "TS": 8282,
      "Ġbonds": 8283,
      "Ġdiffer": 8284,
      "ĠIV": 8285,
      "Ġbridge": 8286,
      "ora": 8287,
      "ĠHTML": 8288,
      "emia": 8289,
      "Ġafford": 8290,
      "Ġfrequent": 8291,
      "heimer": 8292,
      "ĠReal": 8293,
      "Ġgrew": 8294,
      "Ġisolated": 8295,
      "Ġforg": 8296,
      "abul": 8297,
      "Ġcooling": 8298,
      "iro": 8299,
      "ĠFamily": 8300,
      "plant": 8301,
      "hent": 8302,
      "Ġgalaxies": 8303,
      "Ġsmart": 8304,
      "Ġcontrovers": 8305,
      "ĠID": 8306,
      "Ġrarely": 8307,
      "etry": 8308,
      "Ġ49": 8309,
      "Ġdiagnosed": 8310,
      "fil": 8311,
      "asive": 8312,
      "Ġrising": 8313,
      "Ġkidney": 8314,
      "Ġconsiderable": 8315,
      "Ġconverted": 8316,
      "Ġtub": 8317,
      "mentia": 8318,
      "Ġcharacterized": 8319,
      "Ġboys": 8320,
      "Ġcorresponds": 8321,
      "Ġmortality": 8322,
      "Ġconfirmed": 8323,
      "ĠHand": 8324,
      "Ġfunds": 8325,
      "Ġuncertainty": 8326,
      "Ġtick": 8327,
      "ĠâŁ": 8328,
      "Ġversus": 8329,
      "Ġnegot": 8330,
      "ĠTV": 8331,
      "Ġsingular": 8332,
      ".).": 8333,
      "Ne": 8334,
      "pread": 8335,
      "Ġsquares": 8336,
      "Ġsuffer": 8337,
      "https": 8338,
      "Ġmultiply": 8339,
      "books": 8340,
      "kl": 8341,
      "cho": 8342,
      "Ġflux": 8343,
      "Ġauthorities": 8344,
      "Ġestimation": 8345,
      "Ġdeclared": 8346,
      "ĠMil": 8347,
      "Ġenzym": 8348,
      "Ġtrace": 8349,
      "Ġissued": 8350,
      "metric": 8351,
      "Ġemployment": 8352,
      "Ġsight": 8353,
      "Ġthy": 8354,
      "Ġoral": 8355,
      "Ġfacility": 8356,
      "Ġbread": 8357,
      "Ġforget": 8358,
      "Ġbias": 8359,
      "Ġevaluated": 8360,
      "Ġrecommendations": 8361,
      "rass": 8362,
      "ounce": 8363,
      "Ġwear": 8364,
      "Ġquarter": 8365,
      "Ġsubstantial": 8366,
      "Ġmodeling": 8367,
      "Ġpurchase": 8368,
      "=(": 8369,
      "ittle": 8370,
      "Ġintervals": 8371,
      "ĠEth": 8372,
      "Ġoperate": 8373,
      "asi": 8374,
      "Ġreconst": 8375,
      "Ġextens": 8376,
      "Ġsensitivity": 8377,
      "ceedings": 8378,
      "ogeneous": 8379,
      "tem": 8380,
      "alls": 8381,
      "Ġdriven": 8382,
      "Ġimagine": 8383,
      "Ġapplies": 8384,
      "erman": 8385,
      "ashion": 8386,
      "Ġinitially": 8387,
      "Ġsensor": 8388,
      "Ġsweet": 8389,
      "xiety": 8390,
      "Ġdedicated": 8391,
      "ĠAdministration": 8392,
      "Trans": 8393,
      "Ġsole": 8394,
      "ooking": 8395,
      "Ġdeli": 8396,
      "ĠIndeed": 8397,
      "Ã¨": 8398,
      "igan": 8399,
      "Ġevil": 8400,
      "Ġannounced": 8401,
      "haust": 8402,
      "Ġchannels": 8403,
      "Ġprohib": 8404,
      "Ġdealing": 8405,
      "ĠInit": 8406,
      "Ġobesity": 8407,
      "Ġwrites": 8408,
      "placement": 8409,
      "Ġmacro": 8410,
      "Ġdose": 8411,
      "ĠEmpire": 8412,
      "Ġparticipation": 8413,
      "ellar": 8414,
      "Ġmanufacturing": 8415,
      "ĠIdent": 8416,
      "ĠLee": 8417,
      "esides": 8418,
      "Ġscientist": 8419,
      "Ġterritory": 8420,
      "utch": 8421,
      "angles": 8422,
      "Ġapproved": 8423,
      "Ġmarg": 8424,
      "uing": 8425,
      "ipher": 8426,
      "enses": 8427,
      "Ġinterior": 8428,
      "Äģ": 8429,
      "Ġacids": 8430,
      "Ġpassage": 8431,
      "Ġpoison": 8432,
      "Ġreliable": 8433,
      "Ġdefe": 8434,
      "PT": 8435,
      "Ġbiology": 8436,
      "Ġreceiving": 8437,
      "Ġmaintained": 8438,
      "Val": 8439,
      "Ġcircular": 8440,
      "Ġfalls": 8441,
      "ateral": 8442,
      "Ġundert": 8443,
      "Ġelection": 8444,
      "ĠAlexander": 8445,
      "asy": 8446,
      "ulty": 8447,
      "ĠTim": 8448,
      "Ġcurriculum": 8449,
      "Rep": 8450,
      "Ġimaging": 8451,
      "Ġpregnant": 8452,
      "ĠRom": 8453,
      "Ġengines": 8454,
      "riction": 8455,
      "NN": 8456,
      "ĠKn": 8457,
      "Ġpharm": 8458,
      "Ġ1991": 8459,
      "Ġholding": 8460,
      "sk": 8461,
      "eenth": 8462,
      "Ġgenerations": 8463,
      "Ġexamined": 8464,
      "Ġasympt": 8465,
      ".$": 8466,
      "ami": 8467,
      "ierarch": 8468,
      "Ġintelligence": 8469,
      "Once": 8470,
      "Ġabnormal": 8471,
      "Ġspectral": 8472,
      "Ġcopper": 8473,
      "Ġbehaviors": 8474,
      "Ġspiritual": 8475,
      "rating": 8476,
      "Ġcoffee": 8477,
      "Ġelementary": 8478,
      "ĠColumbia": 8479,
      "Ġindependence": 8480,
      "Ġdisplayed": 8481,
      "Ġcontrad": 8482,
      "Ġphoto": 8483,
      "Ġconsumer": 8484,
      "Ġcommitted": 8485,
      "EG": 8486,
      "HA": 8487,
      "iability": 8488,
      "ylvania": 8489,
      "Ġath": 8490,
      "oul": 8491,
      "ouds": 8492,
      "ems": 8493,
      "ĠDirector": 8494,
      "lectric": 8495,
      "Ġnewly": 8496,
      "Ġacting": 8497,
      "Ġflav": 8498,
      "ĠYoung": 8499,
      "Ġshapes": 8500,
      "yles": 8501,
      "}[": 8502,
      "Ġles": 8503,
      "olt": 8504,
      "chi": 8505,
      "Ġformulas": 8506,
      "ĠColl": 8507,
      "Ġdenomin": 8508,
      "ĠÐ": 8509,
      "ĠZbl": 8510,
      "Ġft": 8511,
      "Ġboy": 8512,
      "ĠAge": 8513,
      "idespread": 8514,
      "olving": 8515,
      "ĠBill": 8516,
      "Ġwarning": 8517,
      "Ġhidden": 8518,
      "ĠBus": 8519,
      "OD": 8520,
      "ĠLess": 8521,
      "Ġ76": 8522,
      "ourier": 8523,
      "Ġhus": 8524,
      "eting": 8525,
      "ĠLanguage": 8526,
      "Ġsched": 8527,
      "Ġlaunch": 8528,
      "atus": 8529,
      "ogram": 8530,
      "tri": 8531,
      "{-": 8532,
      "PDF": 8533,
      "Ġlibraries": 8534,
      "ĠBefore": 8535,
      "ĠWrit": 8536,
      "ĠFar": 8537,
      "Ġrocks": 8538,
      "case": 8539,
      "erals": 8540,
      "Ġcalculus": 8541,
      "ercise": 8542,
      "Ġaband": 8543,
      "ĠForce": 8544,
      "Ġremoval": 8545,
      "ysical": 8546,
      "Ġpurs": 8547,
      "ĠAff": 8548,
      "Ġdelivery": 8549,
      "Ġpreparation": 8550,
      "Ġheating": 8551,
      "Ġcommission": 8552,
      "ĠTom": 8553,
      "Ġperiodic": 8554,
      "Ġturning": 8555,
      "ĠDivision": 8556,
      "Ġcoverage": 8557,
      "Ġlisten": 8558,
      "Ġmarks": 8559,
      "ĠApplied": 8560,
      "Ġtransportation": 8561,
      "åľ¨": 8562,
      "SL": 8563,
      "otherapy": 8564,
      "inated": 8565,
      "ĠNever": 8566,
      "Ġconfirm": 8567,
      "äºĨ": 8568,
      "Given": 8569,
      "ĠCa": 8570,
      "Ġfeeding": 8571,
      "Ġrevers": 8572,
      "Ġpointed": 8573,
      "Ġbiggest": 8574,
      "ï¬": 8575,
      "oral": 8576,
      "Ġworst": 8577,
      "UL": 8578,
      "Ġsales": 8579,
      "ushed": 8580,
      "earing": 8581,
      "Ġeffectiveness": 8582,
      "Ġnutrition": 8583,
      "Ġod": 8584,
      "ĠSand": 8585,
      "Ġsuppose": 8586,
      "Ġwalking": 8587,
      "ĠBig": 8588,
      "ĠOR": 8589,
      "asters": 8590,
      "ĠLy": 8591,
      "ĠLinux": 8592,
      "Comm": 8593,
      "]$": 8594,
      "ourse": 8595,
      "apor": 8596,
      "Ġhistoric": 8597,
      "ĠValley": 8598,
      "Ġsodium": 8599,
      "Ob": 8600,
      "eor": 8601,
      "ĠField": 8602,
      "Ġfinished": 8603,
      "ione": 8604,
      "Ġmg": 8605,
      "idential": 8606,
      "ĠSil": 8607,
      "Ġships": 8608,
      "Ġsmallest": 8609,
      "Ġye": 8610,
      "Ġreserved": 8611,
      "Ġdepict": 8612,
      "ĠSar": 8613,
      "ishop": 8614,
      "ĠSym": 8615,
      "ĠNone": 8616,
      "Ġstronger": 8617,
      "Ġbot": 8618,
      "arks": 8619,
      "oured": 8620,
      "mathit": 8621,
      "Ġidentification": 8622,
      ")*": 8623,
      "Ġ>>": 8624,
      "Ġsteam": 8625,
      "MM": 8626,
      "rog": 8627,
      "Ġscene": 8628,
      "Ġastronom": 8629,
      ")}$": 8630,
      "Ġreward": 8631,
      "Ġmining": 8632,
      "hether": 8633,
      "Ġcarrying": 8634,
      "PP": 8635,
      "Ġwriter": 8636,
      "OW": 8637,
      "Ġmand": 8638,
      "ĠTre": 8639,
      "Ġrobust": 8640,
      "fol": 8641,
      "ipse": 8642,
      "Ġregulations": 8643,
      "Ġreson": 8644,
      "Ġinsurance": 8645,
      "Ġcutting": 8646,
      "Ġhousing": 8647,
      "SM": 8648,
      "ĠBr": 8649,
      "Ġpounds": 8650,
      "Ġneck": 8651,
      "Ġemission": 8652,
      "Ġdefines": 8653,
      "aration": 8654,
      "asma": 8655,
      "Ġinsects": 8656,
      "ĠTaylor": 8657,
      "ĠCommunity": 8658,
      "spe": 8659,
      "Ġprovider": 8660,
      "();": 8661,
      "ritis": 8662,
      "there": 8663,
      "Ġfighting": 8664,
      "ĠPolicy": 8665,
      "ibl": 8666,
      "Ġgases": 8667,
      "break": 8668,
      "specific": 8669,
      "after": 8670,
      "Ġfet": 8671,
      "Ġintervention": 8672,
      "ĠApplications": 8673,
      "Ġinvestigation": 8674,
      "Set": 8675,
      "ĠIss": 8676,
      "ested": 8677,
      "Ġparad": 8678,
      "Ġbreathing": 8679,
      "Ġthorough": 8680,
      "Ġmos": 8681,
      "Ġenerg": 8682,
      "Ġcaptured": 8683,
      "ivari": 8684,
      "outs": 8685,
      "posed": 8686,
      "cup": 8687,
      "Ġwheel": 8688,
      "ressive": 8689,
      "ĠTry": 8690,
      "Ġargue": 8691,
      "hab": 8692,
      "Ġscalar": 8693,
      "Des": 8694,
      "}\\\\": 8695,
      "frak": 8696,
      "hav": 8697,
      "Ġrely": 8698,
      "Ġworry": 8699,
      "Ġvolcan": 8700,
      "UE": 8701,
      "ailability": 8702,
      "Ġdetermining": 8703,
      "List": 8704,
      "Ġtu": 8705,
      "Ġtensor": 8706,
      "ĠRam": 8707,
      "ivered": 8708,
      "rison": 8709,
      "Ġcited": 8710,
      "onday": 8711,
      "Ġlock": 8712,
      "Ġbasically": 8713,
      "Use": 8714,
      "esis": 8715,
      "Ġlocally": 8716,
      "Ġquadratic": 8717,
      "Ass": 8718,
      "ĠEc": 8719,
      "Ġscales": 8720,
      "ĠWho": 8721,
      "ĠGeorgia": 8722,
      "zheimer": 8723,
      "Ġplanets": 8724,
      "Ġtexts": 8725,
      "Ġlabels": 8726,
      "forcement": 8727,
      "Ġ($": 8728,
      "ĠWal": 8729,
      "Ġexercises": 8730,
      "Ġdenote": 8731,
      "Ġmasses": 8732,
      "isdom": 8733,
      "ĠExamples": 8734,
      "Ġcultiv": 8735,
      "ĠSecurity": 8736,
      "itting": 8737,
      "ĠSup": 8738,
      "Ġdementia": 8739,
      "Ġrestricted": 8740,
      ":||": 8741,
      "Am": 8742,
      "uan": 8743,
      "Ġmales": 8744,
      "Ġgenerating": 8745,
      "ippi": 8746,
      "Posted": 8747,
      "Ġgalaxy": 8748,
      "Ġfertil": 8749,
      "HC": 8750,
      "Ġarrow": 8751,
      "ricts": 8752,
      "rank": 8753,
      "Ġrealized": 8754,
      "Source": 8755,
      "Ġgau": 8756,
      "Ġ47": 8757,
      "Ġroof": 8758,
      "Ġwidespread": 8759,
      "ĠGree": 8760,
      "Ġaccessible": 8761,
      "Ġartificial": 8762,
      "ĠDate": 8763,
      "arsh": 8764,
      "åĽ": 8765,
      "ester": 8766,
      "ĠVictor": 8767,
      "Ġlaunched": 8768,
      "Ġdescribing": 8769,
      "ucky": 8770,
      "Ġgradually": 8771,
      "Ġtrends": 8772,
      "Ġtall": 8773,
      "duction": 8774,
      "2002": 8775,
      "clusions": 8776,
      "ĠEarly": 8777,
      "TT": 8778,
      "arest": 8779,
      "liam": 8780,
      "rolled": 8781,
      "Ġdesire": 8782,
      "Ġtopology": 8783,
      "idance": 8784,
      "Ġintense": 8785,
      "Ġexplicitly": 8786,
      "ĠWang": 8787,
      "Where": 8788,
      "Ġcash": 8789,
      "Ġfabric": 8790,
      "ĠCult": 8791,
      "Ġadequate": 8792,
      "Ġunusual": 8793,
      "Ġdot": 8794,
      "iber": 8795,
      "ensed": 8796,
      "Ġscope": 8797,
      "Ġveter": 8798,
      "regular": 8799,
      "Ġnitrogen": 8800,
      "Two": 8801,
      "Ġchap": 8802,
      "mathfrak": 8803,
      "ometers": 8804,
      "æĹ": 8805,
      "Ġdisaster": 8806,
      "Ġadjacent": 8807,
      "ĠParty": 8808,
      "Ġcot": 8809,
      "Ġkit": 8810,
      "current": 8811,
      "Ġdestruction": 8812,
      "Ġprofessionals": 8813,
      "ĠJohnson": 8814,
      "count": 8815,
      "ĠCam": 8816,
      "estyle": 8817,
      "Ġheads": 8818,
      "Ġpredictions": 8819,
      "Ġdecreased": 8820,
      "ĠConservation": 8821,
      "Ġattributes": 8822,
      "rons": 8823,
      "import": 8824,
      "ĠRoyal": 8825,
      "Ġcovering": 8826,
      "Ġsymmetry": 8827,
      "Ġalpha": 8828,
      "Ġkg": 8829,
      "nsylvania": 8830,
      "ilson": 8831,
      "Ġfault": 8832,
      "ĠTR": 8833,
      "ogether": 8834,
      "isson": 8835,
      "Ġapparently": 8836,
      "Net": 8837,
      "Ġtropical": 8838,
      "Ġscatter": 8839,
      "Ġdivis": 8840,
      "Ġlegislation": 8841,
      "ĠItalian": 8842,
      "ĠHamilton": 8843,
      "ibration": 8844,
      "Ġknowing": 8845,
      "ectors": 8846,
      "Ġgluc": 8847,
      "æĪĳ": 8848,
      "onent": 8849,
      "Ġcodes": 8850,
      "ĠHor": 8851,
      "iana": 8852,
      "Ġpainting": 8853,
      "Ġspan": 8854,
      "ĠAsian": 8855,
      "Ġdraft": 8856,
      "Ġdriver": 8857,
      "Ġbabies": 8858,
      "iated": 8859,
      "uits": 8860,
      "Ġbytes": 8861,
      "Ps": 8862,
      "Ġgiant": 8863,
      "Ġscreening": 8864,
      "oor": 8865,
      "uset": 8866,
      "Ġcounty": 8867,
      "Ġanalyze": 8868,
      "inst": 8869,
      "Ġment": 8870,
      "ĠBudd": 8871,
      "HS": 8872,
      "gressive": 8873,
      "PD": 8874,
      "iodiversity": 8875,
      "ĠChristmas": 8876,
      "Ġelsewhere": 8877,
      "^*": 8878,
      "}+\\": 8879,
      "Ġtract": 8880,
      "ĠLight": 8881,
      "Ġcholesterol": 8882,
      "Ġelected": 8883,
      "Ġwindows": 8884,
      "Ġfloat": 8885,
      "Ġconsisting": 8886,
      "igenous": 8887,
      "ĠPractice": 8888,
      "800": 8889,
      "Ġ09": 8890,
      "Ġcycles": 8891,
      "Ġgravitational": 8892,
      "âĦ": 8893,
      "ĠVan": 8894,
      "first": 8895,
      "Ġwine": 8896,
      "Ġexhaust": 8897,
      "Ġproven": 8898,
      "Ġnom": 8899,
      "Ġequality": 8900,
      "Ġstruggle": 8901,
      "FA": 8902,
      "Ġforming": 8903,
      "ĠAgain": 8904,
      "kg": 8905,
      "ĠGrand": 8906,
      "âĢĻ.": 8907,
      "ĠUnfortunately": 8908,
      "Ġinstant": 8909,
      "Ġincident": 8910,
      "cr": 8911,
      "Ġmal": 8912,
      "ĠSometimes": 8913,
      "Ġ600": 8914,
      "Ġinternet": 8915,
      "Ġsaved": 8916,
      "Even": 8917,
      "omatic": 8918,
      "Ġ51": 8919,
      "Ġamaz": 8920,
      "ĠNative": 8921,
      "version": 8922,
      "Ġsuffering": 8923,
      "Ġbranches": 8924,
      "Co": 8925,
      "Ġboost": 8926,
      "write": 8927,
      "ç»": 8928,
      "Ġpra": 8929,
      "ĠSund": 8930,
      "large": 8931,
      "Ġfurn": 8932,
      "ima": 8933,
      "Ġpasses": 8934,
      "iest": 8935,
      "acher": 8936,
      "ĠDarwin": 8937,
      "ĠSuppose": 8938,
      "Ġhero": 8939,
      "ĠVi": 8940,
      "ribe": 8941,
      "Ġnamely": 8942,
      "Ġfemales": 8943,
      "Please": 8944,
      "sur": 8945,
      "ĠClick": 8946,
      "ĠRh": 8947,
      "Ġsummar": 8948,
      "Ġexhibit": 8949,
      "abits": 8950,
      "ĠHom": 8951,
      "400": 8952,
      "dule": 8953,
      "Ġrivers": 8954,
      "Ġphysician": 8955,
      "View": 8956,
      "Ġcrack": 8957,
      "sell": 8958,
      "Ġrecycl": 8959,
      "Ġcovari": 8960,
      "Ġrobot": 8961,
      "Ġ}$": 8962,
      "ĠChen": 8963,
      "Ġinstances": 8964,
      "approx": 8965,
      "liament": 8966,
      "ello": 8967,
      "Car": 8968,
      "Ġdistances": 8969,
      "Ġtrip": 8970,
      "Ġclaimed": 8971,
      "Ġ}}": 8972,
      "Ġquot": 8973,
      "Ġ52": 8974,
      "Ġlegisl": 8975,
      "ois": 8976,
      "Ġdrain": 8977,
      "Ġanywhere": 8978,
      "gener": 8979,
      "Ġorgans": 8980,
      "TER": 8981,
      "Ġranges": 8982,
      "liest": 8983,
      "vare": 8984,
      "adder": 8985,
      "hemical": 8986,
      "Ġemployees": 8987,
      "bmatrix": 8988,
      "ocy": 8989,
      "Ġassuming": 8990,
      "va": 8991,
      "ifer": 8992,
      "ĠEmer": 8993,
      "Ġvaries": 8994,
      "Ġshop": 8995,
      "ĠStan": 8996,
      "Ġpolitics": 8997,
      "ĠKingdom": 8998,
      "Ġ1950": 8999,
      "Ġfeelings": 9000,
      "Ġperfectly": 9001,
      "\";": 9002,
      "Î¼": 9003,
      "Ġblind": 9004,
      "Ġswim": 9005,
      "Solution": 9006,
      "Ġille": 9007,
      "Ġdual": 9008,
      "ĠName": 9009,
      "Â¯": 9010,
      "Ġmine": 9011,
      "isted": 9012,
      "Ġspok": 9013,
      "Ġduration": 9014,
      "lock": 9015,
      "Ġskill": 9016,
      "Ġclot": 9017,
      "Ġsimultaneously": 9018,
      "only": 9019,
      "Ġengineers": 9020,
      "eros": 9021,
      "Ġrespir": 9022,
      "Ġdelivered": 9023,
      "Ġ1989": 9024,
      "Ġvulnerable": 9025,
      "ĠCreat": 9026,
      "Ġdesigns": 9027,
      "Gamma": 9028,
      "adel": 9029,
      "Ġru": 9030,
      "Ġinsulin": 9031,
      "norm": 9032,
      "riday": 9033,
      "tically": 9034,
      "ĠMoon": 9035,
      "ĠWed": 9036,
      "ĠLie": 9037,
      "iah": 9038,
      "Ġcopyright": 9039,
      "ĠVietnam": 9040,
      "='": 9041,
      "ira": 9042,
      "names": 9043,
      "Ġgained": 9044,
      "issippi": 9045,
      "Ġpolynomials": 9046,
      "ĠProper": 9047,
      "Ġfishing": 9048,
      "Ġarr": 9049,
      "Ġinjuries": 9050,
      ")?": 9051,
      "mn": 9052,
      "Ġinteractive": 9053,
      "Ġatmospheric": 9054,
      "ĠProblems": 9055,
      "ĠPennsylvania": 9056,
      "Ġenemy": 9057,
      "Ġpit": 9058,
      "Ġelastic": 9059,
      "Ġbusinesses": 9060,
      "600": 9061,
      "ĠSource": 9062,
      "oving": 9063,
      "Ġpin": 9064,
      "Thus": 9065,
      "iang": 9066,
      "Ġrecover": 9067,
      "Ġequals": 9068,
      "Ġstabil": 9069,
      "Ġtea": 9070,
      "requency": 9071,
      "=-": 9072,
      "ĠBased": 9073,
      "Ġanalyzed": 9074,
      "Are": 9075,
      "Lear": 9076,
      "Ġcats": 9077,
      "ĠAri": 9078,
      "ercury": 9079,
      "Ġmatching": 9080,
      "Ġcopies": 9081,
      "nabla": 9082,
      "ME": 9083,
      "oric": 9084,
      "amination": 9085,
      "orted": 9086,
      "allow": 9087,
      "Ġepis": 9088,
      "operatorname": 9089,
      "was": 9090,
      "Ġcompos": 9091,
      "Ġintake": 9092,
      "Ġregister": 9093,
      "ĠBrazil": 9094,
      "stic": 9095,
      "Spec": 9096,
      "ĠAlzheimer": 9097,
      "being": 9098,
      "Ġpriority": 9099,
      "Er": 9100,
      "Ġsmoking": 9101,
      "otype": 9102,
      "ĠNeg": 9103,
      "Ġpermission": 9104,
      "ker": 9105,
      "ĠAB": 9106,
      "Ġchick": 9107,
      "Ġoutl": 9108,
      "Ġplots": 9109,
      "Ġrender": 9110,
      "ĠBul": 9111,
      "Ġmodules": 9112,
      "ĠÎ»": 9113,
      "reland": 9114,
      "ĠCS": 9115,
      "Ġlaid": 9116,
      "Ġvarying": 9117,
      "instein": 9118,
      "Ġstreet": 9119,
      "Ġregarded": 9120,
      "Ġreveal": 9121,
      "yr": 9122,
      "imet": 9123,
      "Ġinfluenced": 9124,
      "Ġweapons": 9125,
      "post": 9126,
      "alities": 9127,
      "Ġjourney": 9128,
      "ĠCard": 9129,
      "Ġprecip": 9130,
      "Ġcollaboration": 9131,
      "arse": 9132,
      "Ġbrowser": 9133,
      "child": 9134,
      "close": 9135,
      "Ġflash": 9136,
      "Ġoccurring": 9137,
      "model": 9138,
      "Ġnarr": 9139,
      "âĢĺ": 9140,
      "ĠHill": 9141,
      "Ġhonor": 9142,
      "ĠAngel": 9143,
      "Ġfavorite": 9144,
      "CA": 9145,
      "gers": 9146,
      "Ġdict": 9147,
      "ĠIndex": 9148,
      "ĠSoft": 9149,
      "ĠLinear": 9150,
      "ĠpH": 9151,
      "irth": 9152,
      "quit": 9153,
      "ĠIndians": 9154,
      "Ġconcluded": 9155,
      "ĠFed": 9156,
      "ĠStar": 9157,
      "Ġphosph": 9158,
      "ĠDeterm": 9159,
      "Ġfed": 9160,
      "Ġstre": 9161,
      "Ġvoc": 9162,
      "Ġenorm": 9163,
      "ensor": 9164,
      "Ġregime": 9165,
      "Ġtissues": 9166,
      "ĠÂłĠÂłĠÂłĠÂłĠÂłĠÂłĠÂłĠÂł": 9167,
      "hedule": 9168,
      "ubble": 9169,
      "ysics": 9170,
      "jective": 9171,
      "Ġdefining": 9172,
      "ĠOrganization": 9173,
      "Ġdesert": 9174,
      "1000": 9175,
      "Ġaver": 9176,
      "ĠHeart": 9177,
      "ĠGaussian": 9178,
      "amil": 9179,
      "ĠPak": 9180,
      "ĠOS": 9181,
      "Ġcomputational": 9182,
      "ĠAvoid": 9183,
      "ĠChemistry": 9184,
      "Ġhazard": 9185,
      "Ġdil": 9186,
      "Ġempir": 9187,
      "Ġevolutionary": 9188,
      "Ġton": 9189,
      "Ġadvert": 9190,
      "urches": 9191,
      "Ġconclude": 9192,
      "ĠThough": 9193,
      "Ġburning": 9194,
      "([": 9195,
      "istence": 9196,
      "Ġangular": 9197,
      "ĠCoast": 9198,
      "Ġsacr": 9199,
      "ocket": 9200,
      "Ġmultipl": 9201,
      "Ġsuperior": 9202,
      "ĠPhysical": 9203,
      "Â²": 9204,
      "Ġcancers": 9205,
      "Ġoblig": 9206,
      "ĠFire": 9207,
      "Ġmodes": 9208,
      "awn": 9209,
      "Ġstrange": 9210,
      "Ġaddressed": 9211,
      "dist": 9212,
      "åĬ": 9213,
      "ĠDirect": 9214,
      "Ġarithmetic": 9215,
      "process": 9216,
      "Well": 9217,
      "Ġfractions": 9218,
      "ols": 9219,
      "opher": 9220,
      "Ġteen": 9221,
      "Ġgeneric": 9222,
      "author": 9223,
      "Ġdecreases": 9224,
      "Ġsuspect": 9225,
      "ml": 9226,
      "Step": 9227,
      "ĠEdition": 9228,
      "Ġheavily": 9229,
      "Ġnerve": 9230,
      "istically": 9231,
      "---": 9232,
      "Just": 9233,
      "OH": 9234,
      "foot": 9235,
      "ograp": 9236,
      "Ġsatisfy": 9237,
      "title": 9238,
      "ĠTrue": 9239,
      "uts": 9240,
      "Ġreplacement": 9241,
      "Ġlecture": 9242,
      "public": 9243,
      "itals": 9244,
      "endar": 9245,
      "host": 9246,
      "Ġwaiting": 9247,
      "Dis": 9248,
      "Ġtab": 9249,
      "ĠNi": 9250,
      "Ġchest": 9251,
      "Ġmouse": 9252,
      "Ġ02": 9253,
      "forward": 9254,
      "Ġcultures": 9255,
      "Ġimprovements": 9256,
      "}&": 9257,
      "Ġcham": 9258,
      "Ġunp": 9259,
      "orses": 9260,
      "Ġrecurs": 9261,
      "Ġexamination": 9262,
      "Ġconsideration": 9263,
      "Wor": 9264,
      "Ġdispers": 9265,
      "ĠLearn": 9266,
      "Ġmigration": 9267,
      "ĠSir": 9268,
      "urning": 9269,
      "ĠMA": 9270,
      "Ġkeys": 9271,
      "Ġcommunicate": 9272,
      "Ġderivatives": 9273,
      "ideos": 9274,
      "ĠArctic": 9275,
      "Ġregardless": 9276,
      "âĶĢ": 9277,
      "Sm": 9278,
      "Ġsomewhere": 9279,
      "Ġmoisture": 9280,
      "Ġdefense": 9281,
      "Ġcharges": 9282,
      "ĠMethods": 9283,
[...]
